{
  "version": "1.0",
  "truncation": null,
  "padding": null,
  "added_tokens": [
    {
      "id": 0,
      "content": "[UNK]",
      "single_word": false,
      "lstrip": false,
      "rstrip": false,
      "normalized": false,
      "special": true
    },
    {
      "id": 1,
      "content": "[PAD]",
      "single_word": false,
      "lstrip": false,
      "rstrip": false,
      "normalized": false,
      "special": true
    }
  ],
  "normalizer": null,
  "pre_tokenizer": {
    "type": "Whitespace"
  },
  "post_processor": null,
  "decoder": null,
  "model": {
    "type": "BPE",
    "dropout": null,
    "unk_token": null,
    "continuing_subword_prefix": null,
    "end_of_word_suffix": null,
    "fuse_unk": false,
    "byte_fallback": false,
    "ignore_merges": false,
    "vocab": {
      "[UNK]": 0,
      "[PAD]": 1,
      "a": 2,
      "b": 3,
      "c": 4,
      "d": 5,
      "e": 6,
      "f": 7,
      "g": 8,
      "h": 9,
      "i": 10,
      "j": 11,
      "k": 12,
      "l": 13,
      "m": 14,
      "n": 15,
      "o": 16,
      "p": 17,
      "q": 18,
      "r": 19,
      "s": 20,
      "t": 21,
      "u": 22,
      "v": 23,
      "w": 24,
      "x": 25,
      "y": 26,
      "z": 27,
      "th": 28,
      "in": 29,
      "el": 30,
      "an": 31,
      "fe": 32,
      "feel": 33,
      "ing": 34,
      "re": 35,
      "the": 36,
      "at": 37,
      "to": 38,
      "ou": 39,
      "on": 40,
      "er": 41,
      "ed": 42,
      "en": 43,
      "and": 44,
      "st": 45,
      "it": 46,
      "al": 47,
      "or": 48,
      "is": 49,
      "me": 50,
      "le": 51,
      "as": 52,
      "be": 53,
      "ar": 54,
      "of": 55,
      "ve": 56,
      "feeling": 57,
      "my": 58,
      "that": 59,
      "so": 60,
      "li": 61,
      "ly": 62,
      "ke": 63,
      "no": 64,
      "ha": 65,
      "wh": 66,
      "se": 67,
      "im": 68,
      "ch": 69,
      "ay": 70,
      "ti": 71,
      "am": 72,
      "ab": 73,
      "es": 74,
      "ver": 75,
      "lo": 76,
      "wi": 77,
      "ut": 78,
      "out": 79,
      "for": 80,
      "like": 81,
      "gh": 82,
      "id": 83,
      "mo": 84,
      "ac": 85,
      "ro": 86,
      "ad": 87,
      "ld": 88,
      "ri": 89,
      "ent": 90,
      "su": 91,
      "was": 92,
      "ho": 93,
      "but": 94,
      "co": 95,
      "with": 96,
      "he": 97,
      "un": 98,
      "have": 99,
      "ul": 100,
      "ge": 101,
      "do": 102,
      "ic": 103,
      "this": 104,
      "go": 105,
      "ant": 106,
      "you": 107,
      "we": 108,
      "ally": 109,
      "ll": 110,
      "ust": 111,
      "not": 112,
      "pe": 113,
      "ss": 114,
      "ca": 115,
      "some": 116,
      "thing": 117,
      "about": 118,
      "now": 119,
      "ght": 120,
      "ne": 121,
      "all": 122,
      "one": 123,
      "ir": 124,
      "ould": 125,
      "very": 126,
      "pp": 127,
      "ion": 128,
      "de": 129,
      "use": 130,
      "ter": 131,
      "just": 132,
      "ce": 133,
      "ful": 134,
      "ous": 135,
      "when": 136,
      "ive": 137,
      "con": 138,
      "ra": 139,
      "up": 140,
      "ple": 141,
      "ther": 142,
      "red": 143,
      "sel": 144,
      "ma": 145,
      "day": 146,
      "sh": 147,
      "cause": 148,
      "wor": 149,
      "time": 150,
      "more": 151,
      "are": 152,
      "pre": 153,
      "art": 154,
      "way": 155,
      "because": 156,
      "ate": 157,
      "ex": 158,
      "end": 159,
      "ur": 160,
      "if": 161,
      "po": 162,
      "can": 163,
      "tt": 164,
      "self": 165,
      "per": 166,
      "com": 167,
      "nt": 168,
      "any": 169,
      "ain": 170,
      "know": 171,
      "us": 172,
      "ill": 173,
      "ry": 174,
      "king": 175,
      "how": 176,
      "itt": 177,
      "ated": 178,
      "really": 179,
      "ag": 180,
      "od": 181,
      "by": 182,
      "ely": 183,
      "ind": 184,
      "don": 185,
      "ough": 186,
      "want": 187,
      "ct": 188,
      "what": 189,
      "get": 190,
      "been": 191,
      "able": 192,
      "ess": 193,
      "ev": 194,
      "myself": 195,
      "rom": 196,
      "make": 197,
      "ong": 198,
      "who": 199,
      "thin": 200,
      "had": 201,
      "ast": 202,
      "litt": 203,
      "nd": 204,
      "little": 205,
      "il": 206,
      "pl": 207,
      "bit": 208,
      "qu": 209,
      "they": 210,
      "did": 211,
      "less": 212,
      "will": 213,
      "ation": 214,
      "ok": 215,
      "would": 216,
      "from": 217,
      "ard": 218,
      "them": 219,
      "ol": 220,
      "being": 221,
      "tion": 222,
      "her": 223,
      "ving": 224,
      "sp": 225,
      "dis": 226,
      "ople": 227,
      "people": 228,
      "um": 229,
      "bo": 230,
      "ci": 231,
      "every": 232,
      "pro": 233,
      "our": 234,
      "et": 235,
      "ell": 236,
      "ack": 237,
      "whi": 238,
      "em": 239,
      "other": 240,
      "ound": 241,
      "ort": 242,
      "than": 243,
      "think": 244,
      "wn": 245,
      "int": 246,
      "sa": 247,
      "there": 248,
      "even": 249,
      "still": 250,
      "its": 251,
      "him": 252,
      "ep": 253,
      "over": 254,
      "ment": 255,
      "life": 256,
      "need": 257,
      "ru": 258,
      "mu": 259,
      "tic": 260,
      "af": 261,
      "act": 262,
      "ight": 263,
      "ite": 264,
      "read": 265,
      "ish": 266,
      "der": 267,
      "could": 268,
      "ass": 269,
      "di": 270,
      "happ": 271,
      "fo": 272,
      "fri": 273,
      "ide": 274,
      "ace": 275,
      "love": 276,
      "something": 277,
      "gr": 278,
      "ear": 279,
      "pt": 280,
      "vi": 281,
      "ck": 282,
      "going": 283,
      "gu": 284,
      "much": 285,
      "ved": 286,
      "hel": 287,
      "things": 288,
      "dont": 289,
      "med": 290,
      "ine": 291,
      "friend": 292,
      "wr": 293,
      "come": 294,
      "work": 295,
      "start": 296,
      "back": 297,
      "ity": 298,
      "say": 299,
      "ta": 300,
      "too": 301,
      "low": 302,
      "tty": 303,
      "ure": 304,
      "cont": 305,
      "she": 306,
      "has": 307,
      "ach": 308,
      "see": 309,
      "most": 310,
      "ways": 311,
      "jo": 312,
      "sto": 313,
      "str": 314,
      "rel": 315,
      "wo": 316,
      "good": 317,
      "ang": 318,
      "te": 319,
      "his": 320,
      "ere": 321,
      "right": 322,
      "your": 323,
      "pretty": 324,
      "ig": 325,
      "ers": 326,
      "cho": 327,
      "ade": 328,
      "should": 329,
      "ssed": 330,
      "into": 331,
      "son": 332,
      "times": 333,
      "ble": 334,
      "ning": 335,
      "fa": 336,
      "gre": 337,
      "which": 338,
      "again": 339,
      "after": 340,
      "mis": 341,
      "these": 342,
      "try": 343,
      "pa": 344,
      "their": 345,
      "spe": 346,
      "always": 347,
      "ose": 348,
      "fi": 349,
      "year": 350,
      "sure": 351,
      "app": 352,
      "ener": 353,
      "feelings": 354,
      "help": 355,
      "imp": 356,
      "bl": 357,
      "also": 358,
      "tr": 359,
      "only": 360,
      "bel": 361,
      "sha": 362,
      "today": 363,
      "supp": 364,
      "ious": 365,
      "pr": 366,
      "then": 367,
      "ber": 368,
      "ought": 369,
      "tal": 370,
      "ward": 371,
      "new": 372,
      "feels": 373,
      "where": 374,
      "ick": 375,
      "ek": 376,
      "though": 377,
      "man": 378,
      "sit": 379,
      "mor": 380,
      "won": 381,
      "were": 382,
      "happy": 383,
      "around": 384,
      "heart": 385,
      "kind": 386,
      "stre": 387,
      "home": 388,
      "person": 389,
      "cre": 390,
      "thr": 391,
      "ened": 392,
      "fort": 393,
      "cant": 394,
      "cl": 395,
      "made": 396,
      "through": 397,
      "fin": 398,
      "look": 399,
      "ie": 400,
      "ist": 401,
      "here": 402,
      "week": 403,
      "long": 404,
      "bet": 405,
      "log": 406,
      "az": 407,
      "well": 408,
      "used": 409,
      "au": 410,
      "down": 411,
      "des": 412,
      "fre": 413,
      "may": 414,
      "real": 415,
      "fel": 416,
      "ty": 417,
      "got": 418,
      "par": 419,
      "ever": 420,
      "ily": 421,
      "lot": 422,
      "iz": 423,
      "cou": 424,
      "ner": 425,
      "aw": 426,
      "je": 427,
      "days": 428,
      "didnt": 429,
      "part": 430,
      "stu": 431,
      "off": 432,
      "never": 433,
      "fore": 434,
      "ft": 435,
      "those": 436,
      "thought": 437,
      "felt": 438,
      "fr": 439,
      "find": 440,
      "side": 441,
      "ies": 442,
      "while": 443,
      "ually": 444,
      "ange": 445,
      "someone": 446,
      "ph": 447,
      "gl": 448,
      "sm": 449,
      "having": 450,
      "pass": 451,
      "ence": 452,
      "tting": 453,
      "ked": 454,
      "doing": 455,
      "makes": 456,
      "mem": 457,
      "miss": 458,
      "joy": 459,
      "ice": 460,
      "ten": 461,
      "under": 462,
      "sin": 463,
      "enough": 464,
      "does": 465,
      "quite": 466,
      "br": 467,
      "ild": 468,
      "om": 469,
      "cted": 470,
      "many": 471,
      "let": 472,
      "away": 473,
      "tre": 474,
      "ps": 475,
      "cer": 476,
      "ans": 477,
      "why": 478,
      "fied": 479,
      "put": 480,
      "take": 481,
      "care": 482,
      "cept": 483,
      "est": 484,
      "mon": 485,
      "stand": 486,
      "age": 487,
      "night": 488,
      "own": 489,
      "anything": 490,
      "ready": 491,
      "dec": 492,
      "friends": 493,
      "fam": 494,
      "min": 495,
      "na": 496,
      "list": 497,
      "keep": 498,
      "hope": 499,
      "terri": 500,
      "remem": 501,
      "better": 502,
      "blog": 503,
      "tain": 504,
      "left": 505,
      "before": 506,
      "cle": 507,
      "sat": 508,
      "without": 509,
      "pleas": 510,
      "world": 511,
      "car": 512,
      "last": 513,
      "getting": 514,
      "everything": 515,
      "ref": 516,
      "tell": 517,
      "ance": 518,
      "atch": 519,
      "emo": 520,
      "actually": 521,
      "since": 522,
      "fir": 523,
      "wa": 524,
      "du": 525,
      "amaz": 526,
      "ak": 527,
      "light": 528,
      "such": 529,
      "pres": 530,
      "book": 531,
      "htt": 532,
      "tru": 533,
      "uck": 534,
      "peri": 535,
      "remember": 536,
      "loo": 537,
      "ular": 538,
      "conf": 539,
      "wonder": 540,
      "ken": 541,
      "sometimes": 542,
      "iting": 543,
      "ness": 544,
      "rain": 545,
      "post": 546,
      "gener": 547,
      "swe": 548,
      "comfort": 549,
      "give": 550,
      "http": 551,
      "bab": 552,
      "bro": 553,
      "ating": 554,
      "tor": 555,
      "sen": 556,
      "child": 557,
      "trying": 558,
      "tri": 559,
      "res": 560,
      "cess": 561,
      "ged": 562,
      "op": 563,
      "run": 564,
      "tive": 565,
      "accept": 566,
      "bad": 567,
      "bod": 568,
      "pain": 569,
      "few": 570,
      "moment": 571,
      "bed": 572,
      "men": 573,
      "first": 574,
      "wal": 575,
      "pressed": 576,
      "ative": 577,
      "ys": 578,
      "sur": 579,
      "mar": 580,
      "head": 581,
      "hor": 582,
      "hard": 583,
      "family": 584,
      "sol": 585,
      "import": 586,
      "call": 587,
      "mind": 588,
      "ned": 589,
      "ser": 590,
      "ted": 591,
      "reas": 592,
      "emotion": 593,
      "gic": 594,
      "ately": 595,
      "started": 596,
      "bre": 597,
      "ts": 598,
      "exc": 599,
      "rit": 600,
      "sad": 601,
      "sho": 602,
      "said": 603,
      "hate": 604,
      "tu": 605,
      "lea": 606,
      "stressed": 607,
      "cra": 608,
      "gir": 609,
      "cent": 610,
      "gy": 611,
      "hur": 612,
      "beg": 613,
      "seem": 614,
      "body": 615,
      "important": 616,
      "alone": 617,
      "row": 618,
      "tur": 619,
      "rather": 620,
      "support": 621,
      "fun": 622,
      "making": 623,
      "girl": 624,
      "clo": 625,
      "hi": 626,
      "val": 627,
      "vent": 628,
      "ves": 629,
      "worth": 630,
      "passion": 631,
      "ction": 632,
      "pri": 633,
      "loved": 634,
      "del": 635,
      "gi": 636,
      "place": 637,
      "thank": 638,
      "free": 639,
      "god": 640,
      "ird": 641,
      "comple": 642,
      "ited": 643,
      "already": 644,
      "content": 645,
      "hand": 646,
      "bu": 647,
      "cu": 648,
      "href": 649,
      "inc": 650,
      "play": 651,
      "ms": 652,
      "fer": 653,
      "certain": 654,
      "sle": 655,
      "sured": 656,
      "whel": 657,
      "chool": 658,
      "two": 659,
      "others": 660,
      "ny": 661,
      "fect": 662,
      "overwhel": 663,
      "old": 664,
      "school": 665,
      "yet": 666,
      "years": 667,
      "cr": 668,
      "vo": 669,
      "point": 670,
      "ven": 671,
      "ank": 672,
      "write": 673,
      "comfortable": 674,
      "sy": 675,
      "same": 676,
      "nothing": 677,
      "hum": 678,
      "mat": 679,
      "sed": 680,
      "watch": 681,
      "col": 682,
      "appre": 683,
      "sweet": 684,
      "vely": 685,
      "rest": 686,
      "cial": 687,
      "ren": 688,
      "often": 689,
      "understand": 690,
      "toward": 691,
      "irrit": 692,
      "bur": 693,
      "bless": 694,
      "hes": 695,
      "ib": 696,
      "ise": 697,
      "ished": 698,
      "strong": 699,
      "morning": 700,
      "mel": 701,
      "strange": 702,
      "satis": 703,
      "cal": 704,
      "vel": 705,
      "passionate": 706,
      "led": 707,
      "ions": 708,
      "wanted": 709,
      "ef": 710,
      "might": 711,
      "sing": 712,
      "show": 713,
      "tra": 714,
      "lear": 715,
      "word": 716,
      "cially": 717,
      "face": 718,
      "nor": 719,
      "ting": 720,
      "overwhelmed": 721,
      "weird": 722,
      "guess": 723,
      "ga": 724,
      "tend": 725,
      "ations": 726,
      "reason": 727,
      "valu": 728,
      "sleep": 729,
      "bor": 730,
      "fl": 731,
      "set": 732,
      "usted": 733,
      "anyone": 734,
      "eas": 735,
      "ile": 736,
      "shi": 737,
      "didn": 738,
      "sk": 739,
      "ual": 740,
      "ens": 741,
      "wrong": 742,
      "mean": 743,
      "satisfied": 744,
      "went": 745,
      "enjoy": 746,
      "sick": 747,
      "wel": 748,
      "ident": 749,
      "whole": 750,
      "stop": 751,
      "talk": 752,
      "amazing": 753,
      "bar": 754,
      "dre": 755,
      "cons": 756,
      "umb": 757,
      "looking": 758,
      "ff": 759,
      "ised": 760,
      "room": 761,
      "hop": 762,
      "everyone": 763,
      "month": 764,
      "hurt": 765,
      "dif": 766,
      "once": 767,
      "sul": 768,
      "thinking": 769,
      "hour": 770,
      "anx": 771,
      "sub": 772,
      "angry": 773,
      "excited": 774,
      "done": 775,
      "lon": 776,
      "another": 777,
      "cut": 778,
      "ste": 779,
      "vie": 780,
      "great": 781,
      "ces": 782,
      "thetic": 783,
      "stup": 784,
      "lost": 785,
      "suc": 786,
      "experi": 787,
      "dist": 788,
      "ey": 789,
      "kid": 790,
      "sor": 791,
      "belie": 792,
      "blessed": 793,
      "each": 794,
      "gor": 795,
      "pu": 796,
      "xt": 797,
      "fear": 798,
      "che": 799,
      "adm": 800,
      "cas": 801,
      "thre": 802,
      "tired": 803,
      "class": 804,
      "stupid": 805,
      "rent": 806,
      "writing": 807,
      "pathetic": 808,
      "dam": 809,
      "tely": 810,
      "ary": 811,
      "ustr": 812,
      "coming": 813,
      "maybe": 814,
      "den": 815,
      "past": 816,
      "least": 817,
      "char": 818,
      "pless": 819,
      "arent": 820,
      "la": 821,
      "ug": 822,
      "almost": 823,
      "posit": 824,
      "gent": 825,
      "must": 826,
      "ouse": 827,
      "raid": 828,
      "empt": 829,
      "completely": 830,
      "ob": 831,
      "amp": 832,
      "espe": 833,
      "guil": 834,
      "helpless": 835,
      "realiz": 836,
      "especially": 837,
      "ww": 838,
      "next": 839,
      "press": 840,
      "sense": 841,
      "mer": 842,
      "pic": 843,
      "usu": 844,
      "best": 845,
      "cold": 846,
      "hear": 847,
      "job": 848,
      "accepted": 849,
      "found": 850,
      "hon": 851,
      "become": 852,
      "wear": 853,
      "produ": 854,
      "sort": 855,
      "else": 856,
      "ati": 857,
      "ult": 858,
      "afraid": 859,
      "fact": 860,
      "itated": 861,
      "leave": 862,
      "ath": 863,
      "hated": 864,
      "ia": 865,
      "came": 866,
      "inter": 867,
      "vers": 868,
      "trust": 869,
      "frustr": 870,
      "pleasant": 871,
      "offe": 872,
      "til": 873,
      "mother": 874,
      "ull": 875,
      "perfect": 876,
      "agitated": 877,
      "anger": 878,
      "cur": 879,
      "stru": 880,
      "aged": 881,
      "safe": 882,
      "ticular": 883,
      "particular": 884,
      "big": 885,
      "house": 886,
      "wish": 887,
      "respe": 888,
      "thats": 889,
      "success": 890,
      "ctive": 891,
      "slight": 892,
      "oud": 893,
      "cy": 894,
      "ents": 895,
      "itting": 896,
      "mus": 897,
      "ond": 898,
      "reading": 899,
      "believe": 900,
      "inside": 901,
      "rist": 902,
      "comp": 903,
      "cious": 904,
      "starting": 905,
      "nerv": 906,
      "glad": 907,
      "far": 908,
      "lately": 909,
      "tot": 910,
      "ash": 911,
      "ask": 912,
      "live": 913,
      "ses": 914,
      "rush": 915,
      "taking": 916,
      "horri": 917,
      "thankful": 918,
      "towards": 919,
      "gle": 920,
      "ink": 921,
      "antic": 922,
      "wonderful": 923,
      "anxious": 924,
      "nervous": 925,
      "ng": 926,
      "iness": 927,
      "ater": 928,
      "stay": 929,
      "raged": 930,
      "comm": 931,
      "turn": 932,
      "ibly": 933,
      "totally": 934,
      "dr": 935,
      "wasnt": 936,
      "heal": 937,
      "until": 938,
      "pop": 939,
      "ump": 940,
      "supporting": 941,
      "fic": 942,
      "insp": 943,
      "add": 944,
      "ented": 945,
      "icious": 946,
      "cared": 947,
      "poss": 948,
      "compl": 949,
      "plan": 950,
      "probab": 951,
      "contin": 952,
      "stud": 953,
      "probably": 954,
      "fuck": 955,
      "ired": 956,
      "anno": 957,
      "super": 958,
      "cool": 959,
      "ically": 960,
      "grate": 961,
      "situ": 962,
      "generous": 963,
      "sorry": 964,
      "annoy": 965,
      "cri": 966,
      "gn": 967,
      "hone": 968,
      "oint": 969,
      "loving": 970,
      "expe": 971,
      "extre": 972,
      "appoint": 973,
      "belo": 974,
      "share": 975,
      "words": 976,
      "diffe": 977,
      "grateful": 978,
      "ap": 979,
      "gro": 980,
      "att": 981,
      "told": 982,
      "uring": 983,
      "happen": 984,
      "aching": 985,
      "special": 986,
      "high": 987,
      "cry": 988,
      "fol": 989,
      "ili": 990,
      "tou": 991,
      "deep": 992,
      "ject": 993,
      "months": 994,
      "slightly": 995,
      "luck": 996,
      "mely": 997,
      "ign": 998,
      "count": 999,
      "appreci": 1000,
      "ings": 1001,
      "ones": 1002,
      "move": 1003,
      "depressed": 1004,
      "working": 1005,
      "saying": 1006,
      "surpr": 1007,
      "kids": 1008,
      "ided": 1009,
      "ical": 1010,
      "aught": 1011,
      "listen": 1012,
      "begin": 1013,
      "sym": 1014,
      "ship": 1015,
      "lonely": 1016,
      "continu": 1017,
      "ax": 1018,
      "fine": 1019,
      "ging": 1020,
      "ible": 1021,
      "tful": 1022,
      "vis": 1023,
      "chy": 1024,
      "tten": 1025,
      "frustrated": 1026,
      "successful": 1027,
      "honest": 1028,
      "song": 1029,
      "scared": 1030,
      "vir": 1031,
      "christ": 1032,
      "exha": 1033,
      "spend": 1034,
      "stuff": 1035,
      "particularly": 1036,
      "band": 1037,
      "ith": 1038,
      "wer": 1039,
      "war": 1040,
      "eless": 1041,
      "toge": 1042,
      "ons": 1043,
      "erable": 1044,
      "hot": 1045,
      "peace": 1046,
      "disappoint": 1047,
      "ments": 1048,
      "guilty": 1049,
      "extremely": 1050,
      "pun": 1051,
      "enti": 1052,
      "stic": 1053,
      "allow": 1054,
      "children": 1055,
      "walk": 1056,
      "emotional": 1057,
      "together": 1058,
      "bra": 1059,
      "ger": 1060,
      "io": 1061,
      "parent": 1062,
      "hair": 1063,
      "mom": 1064,
      "conv": 1065,
      "quest": 1066,
      "positive": 1067,
      "horrible": 1068,
      "ah": 1069,
      "iev": 1070,
      "ming": 1071,
      "liked": 1072,
      "ider": 1073,
      "vious": 1074,
      "contro": 1075,
      "relation": 1076,
      "confident": 1077,
      "tured": 1078,
      "dream": 1079,
      "during": 1080,
      "mal": 1081,
      "oo": 1082,
      "asha": 1083,
      "beat": 1084,
      "embar": 1085,
      "giving": 1086,
      "beloved": 1087,
      "ju": 1088,
      "mad": 1089,
      "pho": 1090,
      "rious": 1091,
      "dev": 1092,
      "viol": 1093,
      "faith": 1094,
      "miserable": 1095,
      "truly": 1096,
      "matter": 1097,
      "cure": 1098,
      "kward": 1099,
      "uture": 1100,
      "action": 1101,
      "rich": 1102,
      "boy": 1103,
      "proud": 1104,
      "awkward": 1105,
      "thoughts": 1106,
      "missed": 1107,
      "decis": 1108,
      "terrified": 1109,
      "eyes": 1110,
      "exhausted": 1111,
      "fu": 1112,
      "thy": 1113,
      "stant": 1114,
      "ities": 1115,
      "arti": 1116,
      "lovely": 1117,
      "unity": 1118,
      "defe": 1119,
      "cannot": 1120,
      "relax": 1121,
      "dou": 1122,
      "future": 1123,
      "ire": 1124,
      "rass": 1125,
      "lic": 1126,
      "sex": 1127,
      "change": 1128,
      "woke": 1129,
      "awful": 1130,
      "hopeful": 1131,
      "caring": 1132,
      "tortured": 1133,
      "close": 1134,
      "view": 1135,
      "ashamed": 1136,
      "reg": 1137,
      "thered": 1138,
      "als": 1139,
      "les": 1140,
      "living": 1141,
      "sun": 1142,
      "pped": 1143,
      "acted": 1144,
      "cked": 1145,
      "finally": 1146,
      "baby": 1147,
      "resent": 1148,
      "open": 1149,
      "irritable": 1150,
      "hours": 1151,
      "control": 1152,
      "eat": 1153,
      "vul": 1154,
      "inse": 1155,
      "ano": 1156,
      "ont": 1157,
      "alous": 1158,
      "havent": 1159,
      "selfish": 1160,
      "anymore": 1161,
      "grou": 1162,
      "istic": 1163,
      "stead": 1164,
      "admit": 1165,
      "usually": 1166,
      "cus": 1167,
      "edy": 1168,
      "imid": 1169,
      "full": 1170,
      "story": 1171,
      "woman": 1172,
      "jealous": 1173,
      "decided": 1174,
      "hopeless": 1175,
      "lucky": 1176,
      "embarrass": 1177,
      "fab": 1178,
      "fall": 1179,
      "thar": 1180,
      "hold": 1181,
      "uncertain": 1182,
      "defin": 1183,
      "cond": 1184,
      "ility": 1185,
      "spent": 1186,
      "div": 1187,
      "small": 1188,
      "doesnt": 1189,
      "broken": 1190,
      "experience": 1191,
      "offend": 1192,
      "disappointed": 1193,
      "ither": 1194,
      "ele": 1195,
      "regre": 1196,
      "ord": 1197,
      "lethar": 1198,
      "absol": 1199,
      "suf": 1200,
      "unsure": 1201,
      "ulous": 1202,
      "ween": 1203,
      "wont": 1204,
      "amazed": 1205,
      "confused": 1206,
      "cute": 1207,
      "lethargic": 1208,
      "absolut": 1209,
      "ago": 1210,
      "bus": 1211,
      "instead": 1212,
      "mess": 1213,
      "unhappy": 1214,
      "somehow": 1215,
      "ppy": 1216,
      "deter": 1217,
      "itty": 1218,
      "bothered": 1219,
      "proble": 1220,
      "creative": 1221,
      "ensive": 1222,
      "consider": 1223,
      "popular": 1224,
      "inspired": 1225,
      "vulner": 1226,
      "knew": 1227,
      "ying": 1228,
      "ched": 1229,
      "sum": 1230,
      "deal": 1231,
      "couldnt": 1232,
      "food": 1233,
      "energy": 1234,
      "longer": 1235,
      "jected": 1236,
      "seems": 1237,
      "funny": 1238,
      "different": 1239,
      "photo": 1240,
      "dra": 1241,
      "dened": 1242,
      "ling": 1243,
      "win": 1244,
      "stat": 1245,
      "meet": 1246,
      "somewhat": 1247,
      "shitty": 1248,
      "comes": 1249,
      "talented": 1250,
      "inced": 1251,
      "incred": 1252,
      "annoyed": 1253,
      "devast": 1254,
      "embarrassed": 1255,
      "vulnerable": 1256,
      "ced": 1257,
      "dri": 1258,
      "mas": 1259,
      "mone": 1260,
      "opp": 1261,
      "simp": 1262,
      "ture": 1263,
      "sty": 1264,
      "soon": 1265,
      "ries": 1266,
      "knowing": 1267,
      "ager": 1268,
      "both": 1269,
      "weeks": 1270,
      "between": 1271,
      "calm": 1272,
      "strug": 1273,
      "situation": 1274,
      "brave": 1275,
      "convinced": 1276,
      "bas": 1277,
      "fill": 1278,
      "ggy": 1279,
      "mi": 1280,
      "mine": 1281,
      "ancho": 1282,
      "isol": 1283,
      "tiv": 1284,
      "loy": 1285,
      "idea": 1286,
      "terrible": 1287,
      "running": 1288,
      "break": 1289,
      "melancho": 1290,
      "ieved": 1291,
      "hus": 1292,
      "opt": 1293,
      "pie": 1294,
      "whe": 1295,
      "ried": 1296,
      "uncomfortable": 1297,
      "discou": 1298,
      "intel": 1299,
      "intere": 1300,
      "needed": 1301,
      "igno": 1302,
      "greedy": 1303,
      "shaken": 1304,
      "parano": 1305,
      "irritated": 1306,
      "empty": 1307,
      "respected": 1308,
      "music": 1309,
      "surprised": 1310,
      "punished": 1311,
      "doub": 1312,
      "absolutely": 1313,
      "interest": 1314,
      "hal": 1315,
      "uct": 1316,
      "insul": 1317,
      "resp": 1318,
      "stal": 1319,
      "ital": 1320,
      "imag": 1321,
      "precious": 1322,
      "reluct": 1323,
      "fortun": 1324,
      "minut": 1325,
      "welcome": 1326,
      "fucked": 1327,
      "insecure": 1328,
      "money": 1329,
      "melancholy": 1330,
      "cour": 1331,
      "danger": 1332,
      "ky": 1333,
      "fest": 1334,
      "ors": 1335,
      "asked": 1336,
      "impressed": 1337,
      "spir": 1338,
      "trou": 1339,
      "violent": 1340,
      "offended": 1341,
      "devastated": 1342,
      "husband": 1343,
      "discouraged": 1344,
      "reluctant": 1345,
      "dull": 1346,
      "nice": 1347,
      "numb": 1348,
      "pis": 1349,
      "rejected": 1350,
      "advent": 1351,
      "geous": 1352,
      "useful": 1353,
      "shy": 1354,
      "women": 1355,
      "homesick": 1356,
      "auti": 1357,
      "burdened": 1358,
      "born": 1359,
      "skin": 1360,
      "follow": 1361,
      "resentful": 1362,
      "definit": 1363,
      "suffer": 1364,
      "determin": 1365,
      "air": 1366,
      "dden": 1367,
      "si": 1368,
      "sim": 1369,
      "sitting": 1370,
      "issu": 1371,
      "assured": 1372,
      "form": 1373,
      "weight": 1374,
      "bled": 1375,
      "talking": 1376,
      "phys": 1377,
      "colle": 1378,
      "game": 1379,
      "parents": 1380,
      "divine": 1381,
      "simply": 1382,
      "av": 1383,
      "cking": 1384,
      "resol": 1385,
      "ton": 1386,
      "tonight": 1387,
      "leg": 1388,
      "beauti": 1389,
      "sudden": 1390,
      "constant": 1391,
      "seless": 1392,
      "astic": 1393,
      "bitter": 1394,
      "distr": 1395,
      "happened": 1396,
      "seeing": 1397,
      "front": 1398,
      "gorgeous": 1399,
      "rushed": 1400,
      "isolated": 1401,
      "optim": 1402,
      "beautiful": 1403,
      "hensive": 1404,
      "line": 1405,
      "useless": 1406,
      "inno": 1407,
      "howe": 1408,
      "youre": 1409,
      "using": 1410,
      "kinda": 1411,
      "weekend": 1412,
      "ize": 1413,
      "wake": 1414,
      "truth": 1415,
      "curious": 1416,
      "crank": 1417,
      "hesit": 1418,
      "expect": 1419,
      "whether": 1420,
      "paranoid": 1421,
      "however": 1422,
      "cranky": 1423,
      "blo": 1424,
      "dir": 1425,
      "fant": 1426,
      "pur": 1427,
      "sound": 1428,
      "thri": 1429,
      "remind": 1430,
      "soci": 1431,
      "nostal": 1432,
      "second": 1433,
      "acter": 1434,
      "pping": 1435,
      "wanting": 1436,
      "disg": 1437,
      "intimid": 1438,
      "theres": 1439,
      "rude": 1440,
      "guy": 1441,
      "fair": 1442,
      "ized": 1443,
      "books": 1444,
      "rained": 1445,
      "began": 1446,
      "apprehensive": 1447,
      "character": 1448,
      "beaten": 1449,
      "insulted": 1450,
      "dangerous": 1451,
      "determined": 1452,
      "dumb": 1453,
      "fit": 1454,
      "gloo": 1455,
      "ot": 1456,
      "ored": 1457,
      "spo": 1458,
      "took": 1459,
      "ross": 1460,
      "uni": 1461,
      "conne": 1462,
      "shes": 1463,
      "suppor": 1464,
      "sincere": 1465,
      "pressured": 1466,
      "valuable": 1467,
      "distur": 1468,
      "threat": 1469,
      "ugly": 1470,
      "honored": 1471,
      "groggy": 1472,
      "faithful": 1473,
      "relaxed": 1474,
      "half": 1475,
      "pissed": 1476,
      "innocent": 1477,
      "gloomy": 1478,
      "dar": 1479,
      "either": 1480,
      "gen": 1481,
      "gone": 1482,
      "iet": 1483,
      "sent": 1484,
      "ount": 1485,
      "chang": 1486,
      "unwelcome": 1487,
      "young": 1488,
      "friendly": 1489,
      "adequ": 1490,
      "against": 1491,
      "blank": 1492,
      "couple": 1493,
      "smart": 1494,
      "joyful": 1495,
      "watching": 1496,
      "valued": 1497,
      "wronged": 1498,
      "picture": 1499,
      "atient": 1500,
      "honestly": 1501,
      "incredibly": 1502,
      "optimistic": 1503,
      "ake": 1504,
      "sl": 1505,
      "ins": 1506,
      "dissatisfied": 1507,
      "needs": 1508,
      "fool": 1509,
      "heartbroken": 1510,
      "personal": 1511,
      "clu": 1512,
      "longing": 1513,
      "crappy": 1514,
      "worthless": 1515,
      "given": 1516,
      "sympathetic": 1517,
      "intelli": 1518,
      "ignored": 1519,
      "dirty": 1520,
      "intimidated": 1521,
      "naught": 1522,
      "sc": 1523,
      "order": 1524,
      "mood": 1525,
      "superi": 1526,
      "mach": 1527,
      "exact": 1528,
      "usion": 1529,
      "plain": 1530,
      "disheart": 1531,
      "ground": 1532,
      "pleased": 1533,
      "three": 1534,
      "www": 1535,
      "productive": 1536,
      "relationship": 1537,
      "fortunate": 1538,
      "threatened": 1539,
      "superior": 1540,
      "disheartened": 1541,
      "lit": 1542,
      "lous": 1543,
      "osed": 1544,
      "ught": 1545,
      "zy": 1546,
      "inadequ": 1547,
      "resul": 1548,
      "ature": 1549,
      "romantic": 1550,
      "broke": 1551,
      "mark": 1552,
      "called": 1553,
      "mellow": 1554,
      "realize": 1555,
      "regretful": 1556,
      "festive": 1557,
      "definitely": 1558,
      "hesitant": 1559,
      "lousy": 1560,
      "vain": 1561,
      "ster": 1562,
      "aded": 1563,
      "getic": 1564,
      "lled": 1565,
      "upset": 1566,
      "fail": 1567,
      "desp": 1568,
      "ester": 1569,
      "name": 1570,
      "clever": 1571,
      "delicious": 1572,
      "course": 1573,
      "spirit": 1574,
      "resolved": 1575,
      "disturbed": 1576,
      "naughty": 1577,
      "aking": 1578,
      "ben": 1579,
      "dro": 1580,
      "eating": 1581,
      "hind": 1582,
      "ian": 1583,
      "pay": 1584,
      "yester": 1585,
      "state": 1586,
      "lim": 1587,
      "utter": 1588,
      "ict": 1589,
      "main": 1590,
      "comed": 1591,
      "bitchy": 1592,
      "vile": 1593,
      "vigor": 1594,
      "guys": 1595,
      "fake": 1596,
      "energetic": 1597,
      "bring": 1598,
      "waiting": 1599,
      "serious": 1600,
      "shocked": 1601,
      "humili": 1602,
      "experien": 1603,
      "damaged": 1604,
      "style": 1605,
      "nostalgic": 1606,
      "supportive": 1607,
      "intelligent": 1608,
      "yesterday": 1609,
      "drained": 1610,
      "grow": 1611,
      "sil": 1612,
      "eng": 1613,
      "lives": 1614,
      "whate": 1615,
      "amer": 1616,
      "outside": 1617,
      "etc": 1618,
      "true": 1619,
      "tried": 1620,
      "mention": 1621,
      "fearful": 1622,
      "troubled": 1623,
      "distracted": 1624,
      "fantastic": 1625,
      "inadequate": 1626,
      "humiliated": 1627,
      "gra": 1628,
      "slow": 1629,
      "enter": 1630,
      "icate": 1631,
      "petty": 1632,
      "dep": 1633,
      "exam": 1634,
      "project": 1635,
      "shaky": 1636,
      "supposed": 1637,
      "smile": 1638,
      "gentle": 1639,
      "defeated": 1640,
      "summer": 1641,
      "loyal": 1642,
      "suddenly": 1643,
      "disgusted": 1644,
      "whatever": 1645,
      "eager": 1646,
      "lack": 1647,
      "lau": 1648,
      "sou": 1649,
      "tear": 1650,
      "inv": 1651,
      "memor": 1652,
      "behind": 1653,
      "aring": 1654,
      "arch": 1655,
      "forward": 1656,
      "rotten": 1657,
      "unimportant": 1658,
      "ssion": 1659,
      "depri": 1660,
      "whenever": 1661,
      "exp": 1662,
      "express": 1663,
      "que": 1664,
      "relieved": 1665,
      "speak": 1666,
      "carefree": 1667,
      "listless": 1668,
      "generally": 1669,
      "tender": 1670,
      "boring": 1671,
      "welcomed": 1672,
      "lame": 1673,
      "trusting": 1674,
      "virtu": 1675,
      "fabulous": 1676,
      "omed": 1677,
      "pick": 1678,
      "scre": 1679,
      "rece": 1680,
      "rebel": 1681,
      "oured": 1682,
      "itu": 1683,
      "ition": 1684,
      "along": 1685,
      "ising": 1686,
      "isnt": 1687,
      "lead": 1688,
      "idio": 1689,
      "unfortunate": 1690,
      "near": 1691,
      "explain": 1692,
      "needy": 1693,
      "pray": 1694,
      "single": 1695,
      "easy": 1696,
      "current": 1697,
      "continue": 1698,
      "christmas": 1699,
      "opport": 1700,
      "exactly": 1701,
      "deprived": 1702,
      "har": 1703,
      "land": 1704,
      "late": 1705,
      "oc": 1706,
      "port": 1707,
      "train": 1708,
      "recent": 1709,
      "although": 1710,
      "lious": 1711,
      "doomed": 1712,
      "urous": 1713,
      "tical": 1714,
      "taken": 1715,
      "impatient": 1716,
      "stress": 1717,
      "horny": 1718,
      "buy": 1719,
      "restless": 1720,
      "realized": 1721,
      "touch": 1722,
      "peaceful": 1723,
      "adventurous": 1724,
      "suffering": 1725,
      "rebellious": 1726,
      "bal": 1727,
      "da": 1728,
      "hun": 1729,
      "later": 1730,
      "mid": 1731,
      "iment": 1732,
      "chall": 1733,
      "fully": 1734,
      "selves": 1735,
      "short": 1736,
      "fright": 1737,
      "team": 1738,
      "father": 1739,
      "deser": 1740,
      "stub": 1741,
      "worthwhile": 1742,
      "human": 1743,
      "effort": 1744,
      "learn": 1745,
      "normal": 1746,
      "country": 1747,
      "thrilled": 1748,
      "virtuous": 1749,
      "bly": 1750,
      "fil": 1751,
      "hu": 1752,
      "jaded": 1753,
      "ring": 1754,
      "rid": 1755,
      "sw": 1756,
      "orous": 1757,
      "tice": 1758,
      "ungrateful": 1759,
      "cts": 1760,
      "quick": 1761,
      "umph": 1762,
      "saw": 1763,
      "focus": 1764,
      "teach": 1765,
      "finish": 1766,
      "triumph": 1767,
      "girls": 1768,
      "privile": 1769,
      "contented": 1770,
      "umpy": 1771,
      "beginning": 1772,
      "artistic": 1773,
      "ec": 1774,
      "fac": 1775,
      "jour": 1776,
      "vide": 1777,
      "invigor": 1778,
      "loss": 1779,
      "movie": 1780,
      "wasn": 1781,
      "gest": 1782,
      "convers": 1783,
      "pregn": 1784,
      "known": 1785,
      "prote": 1786,
      "mug": 1787,
      "dire": 1788,
      "descri": 1789,
      "clean": 1790,
      "telling": 1791,
      "acceptable": 1792,
      "learned": 1793,
      "honoured": 1794,
      "healthy": 1795,
      "students": 1796,
      "warm": 1797,
      "problems": 1798,
      "foolish": 1799,
      "frightened": 1800,
      "stubborn": 1801,
      "invigorated": 1802,
      "bi": 1803,
      "gif": 1804,
      "ni": 1805,
      "oh": 1806,
      "smug": 1807,
      "reach": 1808,
      "oun": 1809,
      "lie": 1810,
      "seen": 1811,
      "abused": 1812,
      "ability": 1813,
      "moving": 1814,
      "holi": 1815,
      "cover": 1816,
      "within": 1817,
      "upon": 1818,
      "ended": 1819,
      "ils": 1820,
      "discontent": 1821,
      "grumpy": 1822,
      "clear": 1823,
      "present": 1824,
      "submiss": 1825,
      "constantly": 1826,
      "laugh": 1827,
      "cing": 1828,
      "fast": 1829,
      "sist": 1830,
      "vital": 1831,
      "ket": 1832,
      "tight": 1833,
      "lose": 1834,
      "motiv": 1835,
      "adv": 1836,
      "shit": 1837,
      "power": 1838,
      "stomach": 1839,
      "fav": 1840,
      "path": 1841,
      "desire": 1842,
      "type": 1843,
      "treat": 1844,
      "moments": 1845,
      "serv": 1846,
      "emotions": 1847,
      "delicate": 1848,
      "learning": 1849,
      "possible": 1850,
      "opportunity": 1851,
      "triumphant": 1852,
      "cor": 1853,
      "flow": 1854,
      "fond": 1855,
      "tem": 1856,
      "ze": 1857,
      "step": 1858,
      "met": 1859,
      "level": 1860,
      "search": 1861,
      "event": 1862,
      "space": 1863,
      "worked": 1864,
      "frantic": 1865,
      "phone": 1866,
      "doesn": 1867,
      "putting": 1868,
      "terrific": 1869,
      "hands": 1870,
      "pub": 1871,
      "damn": 1872,
      "appe": 1873,
      "piece": 1874,
      "minutes": 1875,
      "privileged": 1876,
      "bir": 1877,
      "ding": 1878,
      "ered": 1879,
      "gs": 1880,
      "rc": 1881,
      "anna": 1882,
      "ances": 1883,
      "top": 1884,
      "means": 1885,
      "offer": 1886,
      "ably": 1887,
      "ently": 1888,
      "sug": 1889,
      "susp": 1890,
      "unloved": 1891,
      "goes": 1892,
      "gets": 1893,
      "grand": 1894,
      "ache": 1895,
      "walked": 1896,
      "hibit": 1897,
      "delight": 1898,
      "thanks": 1899,
      "rence": 1900,
      "push": 1901,
      "casual": 1902,
      "deeply": 1903,
      "static": 1904,
      "ecstatic": 1905,
      "submissive": 1906,
      "brain": 1907,
      "hy": 1908,
      "lar": 1909,
      "os": 1910,
      "ptical": 1911,
      "src": 1912,
      "yes": 1913,
      "feed": 1914,
      "kept": 1915,
      "amount": 1916,
      "host": 1917,
      "dow": 1918,
      "gotten": 1919,
      "worried": 1920,
      "knowled": 1921,
      "wouldnt": 1922,
      "inten": 1923,
      "teen": 1924,
      "paper": 1925,
      "looks": 1926,
      "reassured": 1927,
      "question": 1928,
      "ctor": 1929,
      "date": 1930,
      "kis": 1931,
      "ption": 1932,
      "sar": 1933,
      "ske": 1934,
      "water": 1935,
      "throw": 1936,
      "itle": 1937,
      "chur": 1938,
      "verse": 1939,
      "uty": 1940,
      "concer": 1941,
      "worry": 1942,
      "ext": 1943,
      "wants": 1944,
      "finished": 1945,
      "glam": 1946,
      "tention": 1947,
      "due": 1948,
      "walking": 1949,
      "leaving": 1950,
      "usual": 1951,
      "wearing": 1952,
      "respect": 1953,
      "possibly": 1954,
      "appreciative": 1955,
      "group": 1956,
      "imagine": 1957,
      "despite": 1958,
      "soul": 1959,
      "birth": 1960,
      "cha": 1961,
      "dle": 1962,
      "equ": 1963,
      "fing": 1964,
      "gain": 1965,
      "non": 1966,
      "round": 1967,
      "wall": 1968,
      "ane": 1969,
      "attention": 1970,
      "envious": 1971,
      "seas": 1972,
      "chance": 1973,
      "acc": 1974,
      "accompl": 1975,
      "rap": 1976,
      "ending": 1977,
      "comments": 1978,
      "illusion": 1979,
      "suppose": 1980,
      "brea": 1981,
      "drink": 1982,
      "struggl": 1983,
      "utterly": 1984,
      "seriously": 1985,
      "americ": 1986,
      "itude": 1987,
      "imental": 1988,
      "knowledge": 1989,
      "apo": 1990,
      "daz": 1991,
      "four": 1992,
      "fight": 1993,
      "gan": 1994,
      "gon": 1995,
      "ial": 1996,
      "kick": 1997,
      "rely": 1998,
      "ue": 1999,
      "vid": 2000,
      "vict": 2001,
      "wed": 2002,
      "ates": 2003,
      "arms": 2004,
      "social": 2005,
      "haps": 2006,
      "across": 2007,
      "ric": 2008,
      "hood": 2009,
      "heard": 2010,
      "wea": 2011,
      "umber": 2012,
      "stories": 2013,
      "figu": 2014,
      "news": 2015,
      "morrow": 2016,
      "streng": 2017,
      "strongly": 2018,
      "effect": 2019,
      "tragic": 2020,
      "ships": 2021,
      "fucking": 2022,
      "dark": 2023,
      "sentimental": 2024,
      "skeptical": 2025,
      "church": 2026,
      "victim": 2027,
      "bing": 2028,
      "ball": 2029,
      "bag": 2030,
      "dad": 2031,
      "fur": 2032,
      "igh": 2033,
      "ks": 2034,
      "laz": 2035,
      "pull": 2036,
      "rad": 2037,
      "uc": 2038,
      "ined": 2039,
      "inner": 2040,
      "remor": 2041,
      "tomorrow": 2042,
      "star": 2043,
      "stra": 2044,
      "ism": 2045,
      "sett": 2046,
      "amused": 2047,
      "unch": 2048,
      "unpleasant": 2049,
      "cap": 2050,
      "neg": 2051,
      "negle": 2052,
      "ific": 2053,
      "perhaps": 2054,
      "ills": 2055,
      "cip": 2056,
      "writ": 2057,
      "gress": 2058,
      "black": 2059,
      "belong": 2060,
      "prac": 2061,
      "fresh": 2062,
      "lots": 2063,
      "aware": 2064,
      "gave": 2065,
      "ease": 2066,
      "community": 2067,
      "spending": 2068,
      "questions": 2069,
      "regard": 2070,
      "connection": 2071,
      "entertain": 2072,
      "tears": 2073,
      "recently": 2074,
      "quickly": 2075,
      "remorse": 2076,
      "card": 2077,
      "lu": 2078,
      "lad": 2079,
      "wit": 2080,
      "anti": 2081,
      "key": 2082,
      "img": 2083,
      "door": 2084,
      "ices": 2085,
      "devo": 2086,
      "death": 2087,
      "worse": 2088,
      "theyre": 2089,
      "ational": 2090,
      "disillusion": 2091,
      "die": 2092,
      "medi": 2093,
      "personally": 2094,
      "party": 2095,
      "answer": 2096,
      "keeping": 2097,
      "wait": 2098,
      "pressure": 2099,
      "wondering": 2100,
      "general": 2101,
      "crazy": 2102,
      "dress": 2103,
      "health": 2104,
      "expected": 2105,
      "attempt": 2106,
      "doubtful": 2107,
      "college": 2108,
      "recei": 2109,
      "dazed": 2110,
      "disillusioned": 2111,
      "avo": 2112,
      "fli": 2113,
      "hit": 2114,
      "ied": 2115,
      "race": 2116,
      "thor": 2117,
      "keen": 2118,
      "sever": 2119,
      "acking": 2120,
      "net": 2121,
      "devel": 2122,
      "tern": 2123,
      "themselves": 2124,
      "pair": 2125,
      "managed": 2126,
      "missing": 2127,
      "emotionally": 2128,
      "sadness": 2129,
      "build": 2130,
      "voice": 2131,
      "reasons": 2132,
      "sleeping": 2133,
      "case": 2134,
      "crying": 2135,
      "listening": 2136,
      "decision": 2137,
      "messy": 2138,
      "photos": 2139,
      "fairly": 2140,
      "describe": 2141,
      "suspicious": 2142,
      "delighted": 2143,
      "weather": 2144,
      "cup": 2145,
      "cele": 2146,
      "flo": 2147,
      "mile": 2148,
      "ingly": 2149,
      "reco": 2150,
      "tory": 2151,
      "onto": 2152,
      "stem": 2153,
      "asking": 2154,
      "core": 2155,
      "necess": 2156,
      "extra": 2157,
      "anyway": 2158,
      "itten": 2159,
      "ilities": 2160,
      "discu": 2161,
      "everyday": 2162,
      "distressed": 2163,
      "happiness": 2164,
      "gram": 2165,
      "early": 2166,
      "choice": 2167,
      "appro": 2168,
      "create": 2169,
      "decide": 2170,
      "trip": 2171,
      "complete": 2172,
      "actions": 2173,
      "struggle": 2174,
      "physically": 2175,
      "challen": 2176,
      "film": 2177,
      "hostile": 2178,
      "lazy": 2179,
      "remorseful": 2180,
      "celebr": 2181,
      "bs": 2182,
      "bum": 2183,
      "dd": 2184,
      "hell": 2185,
      "ier": 2186,
      "kill": 2187,
      "lay": 2188,
      "mil": 2189,
      "wanna": 2190,
      "erc": 2191,
      "ase": 2192,
      "assa": 2193,
      "chest": 2194,
      "forget": 2195,
      "roll": 2196,
      "sharing": 2197,
      "comput": 2198,
      "agre": 2199,
      "plac": 2200,
      "readers": 2201,
      "says": 2202,
      "mostly": 2203,
      "helping": 2204,
      "looked": 2205,
      "passed": 2206,
      "blogging": 2207,
      "please": 2208,
      "playful": 2209,
      "conscious": 2210,
      "diffic": 2211,
      "subject": 2212,
      "complain": 2213,
      "artist": 2214,
      "respons": 2215,
      "simple": 2216,
      "issue": 2217,
      "issues": 2218,
      "spot": 2219,
      "iety": 2220,
      "sister": 2221,
      "favor": 2222,
      "public": 2223,
      "glamorous": 2224,
      "strength": 2225,
      "develop": 2226,
      "daught": 2227,
      "ip": 2228,
      "number": 2229,
      "ping": 2230,
      "por": 2231,
      "smo": 2232,
      "wing": 2233,
      "wise": 2234,
      "ye": 2235,
      "tom": 2236,
      "educ": 2237,
      "ality": 2238,
      "bey": 2239,
      "acious": 2240,
      "weak": 2241,
      "dead": 2242,
      "ters": 2243,
      "except": 2244,
      "ilar": 2245,
      "process": 2246,
      "foot": 2247,
      "presence": 2248,
      "posting": 2249,
      "hateful": 2250,
      "crap": 2251,
      "turned": 2252,
      "enjoyed": 2253,
      "pression": 2254,
      "songs": 2255,
      "allowed": 2256,
      "jud": 2257,
      "filled": 2258,
      "characters": 2259,
      "idiotic": 2260,
      "neglect": 2261,
      "awe": 2262,
      "ahead": 2263,
      "dan": 2264,
      "nat": 2265,
      "ris": 2266,
      "sn": 2267,
      "sign": 2268,
      "iny": 2269,
      "indecis": 2270,
      "thes": 2271,
      "itch": 2272,
      "lect": 2273,
      "asses": 2274,
      "lying": 2275,
      "ayed": 2276,
      "wife": 2277,
      "acent": 2278,
      "ants": 2279,
      "ney": 2280,
      "ages": 2281,
      "aste": 2282,
      "tions": 2283,
      "evening": 2284,
      "epy": 2285,
      "happens": 2286,
      "trans": 2287,
      "frid": 2288,
      "finding": 2289,
      "famili": 2290,
      "cles": 2291,
      "worthy": 2292,
      "anxiety": 2293,
      "company": 2294,
      "complacent": 2295,
      "boyfriend": 2296,
      "busy": 2297,
      "physical": 2298,
      "results": 2299,
      "huge": 2300,
      "gonna": 2301,
      "straight": 2302,
      "negative": 2303,
      "several": 2304,
      "computer": 2305,
      "indecisive": 2306,
      "boun": 2307,
      "catch": 2308,
      "five": 2309,
      "ns": 2310,
      "pat": 2311,
      "prom": 2312,
      "sof": 2313,
      "title": 2314,
      "uro": 2315,
      "inhibit": 2316,
      "return": 2317,
      "onment": 2318,
      "sting": 2319,
      "item": 2320,
      "letting": 2321,
      "bea": 2322,
      "ties": 2323,
      "amed": 2324,
      "lol": 2325,
      "losing": 2326,
      "idence": 2327,
      "somewhere": 2328,
      "exerc": 2329,
      "polit": 2330,
      "odd": 2331,
      "whats": 2332,
      "profe": 2333,
      "progress": 2334,
      "affe": 2335,
      "igned": 2336,
      "shouldnt": 2337,
      "street": 2338,
      "desper": 2339,
      "smell": 2340,
      "brother": 2341,
      "breath": 2342,
      "certainly": 2343,
      "color": 2344,
      "flu": 2345,
      "eye": 2346,
      "guilt": 2347,
      "entire": 2348,
      "grouchy": 2349,
      "meeting": 2350,
      "invol": 2351,
      "memories": 2352,
      "training": 2353,
      "gift": 2354,
      "season": 2355,
      "further": 2356,
      "avoid": 2357,
      "inhibited": 2358,
      "apart": 2359,
      "cat": 2360,
      "fan": 2361,
      "fat": 2362,
      "fra": 2363,
      "gri": 2364,
      "gant": 2365,
      "mist": 2366,
      "ove": 2367,
      "sal": 2368,
      "tar": 2369,
      "wro": 2370,
      "thro": 2371,
      "ines": 2372,
      "incre": 2373,
      "repe": 2374,
      "stri": 2375,
      "organ": 2376,
      "arri": 2377,
      "impro": 2378,
      "immedi": 2379,
      "load": 2380,
      "road": 2381,
      "wash": 2382,
      "ulted": 2383,
      "weepy": 2384,
      "dest": 2385,
      "raught": 2386,
      "pose": 2387,
      "acting": 2388,
      "couldn": 2389,
      "gracious": 2390,
      "written": 2391,
      "stood": 2392,
      "fault": 2393,
      "tran": 2394,
      "career": 2395,
      "terribly": 2396,
      "turning": 2397,
      "playing": 2398,
      "system": 2399,
      "distraught": 2400,
      "obvious": 2401,
      "dram": 2402,
      "entirely": 2403,
      "problem": 2404,
      "doubt": 2405,
      "conversation": 2406,
      "appear": 2407,
      "beyond": 2408,
      "natur": 2409,
      "beauty": 2410,
      "wrote": 2411,
      "bers": 2412,
      "cli": 2413,
      "cir": 2414,
      "dance": 2415,
      "hang": 2416,
      "nal": 2417,
      "pen": 2418,
      "sand": 2419,
      "inclu": 2420,
      "eld": 2421,
      "beha": 2422,
      "betr": 2423,
      "lively": 2424,
      "noon": 2425,
      "notic": 2426,
      "haha": 2427,
      "area": 2428,
      "perfor": 2429,
      "iling": 2430,
      "bitch": 2431,
      "quiet": 2432,
      "proper": 2433,
      "earli": 2434,
      "media": 2435,
      "works": 2436,
      "stopped": 2437,
      "test": 2438,
      "yourself": 2439,
      "choose": 2440,
      "spec": 2441,
      "fix": 2442,
      "talked": 2443,
      "audi": 2444,
      "brought": 2445,
      "psy": 2446,
      "series": 2447,
      "clothes": 2448,
      "easily": 2449,
      "happening": 2450,
      "window": 2451,
      "drive": 2452,
      "blood": 2453,
      "societ": 2454,
      "changes": 2455,
      "slowly": 2456,
      "middle": 2457,
      "deserve": 2458,
      "pregnant": 2459,
      "recogn": 2460,
      "assaulted": 2461,
      "difficult": 2462,
      "daughter": 2463,
      "cult": 2464,
      "dinner": 2465,
      "link": 2466,
      "lord": 2467,
      "table": 2468,
      "winter": 2469,
      "angu": 2470,
      "feet": 2471,
      "edom": 2472,
      "envir": 2473,
      "itself": 2474,
      "mes": 2475,
      "notice": 2476,
      "white": 2477,
      "secre": 2478,
      "gover": 2479,
      "confe": 2480,
      "rage": 2481,
      "comment": 2482,
      "whom": 2483,
      "quil": 2484,
      "boo": 2485,
      "boys": 2486,
      "himself": 2487,
      "epis": 2488,
      "earth": 2489,
      "wards": 2490,
      "throughout": 2491,
      "freedom": 2492,
      "stuck": 2493,
      "opin": 2494,
      "understanding": 2495,
      "norm": 2496,
      "enjoying": 2497,
      "hoping": 2498,
      "situations": 2499,
      "appreciate": 2500,
      "visit": 2501,
      "relationships": 2502,
      "sexual": 2503,
      "elegant": 2504,
      "mix": 2505,
      "minute": 2506,
      "pictures": 2507,
      "graph": 2508,
      "depend": 2509,
      "scream": 2510,
      "daily": 2511,
      "kiss": 2512,
      "apolog": 2513,
      "entertained": 2514,
      "friday": 2515,
      "target": 2516,
      "environment": 2517,
      "cum": 2518,
      "hide": 2519,
      "ians": 2520,
      "nic": 2521,
      "tv": 2522,
      "ured": 2523,
      "thus": 2524,
      "ator": 2525,
      "ene": 2526,
      "encou": 2527,
      "lived": 2528,
      "hea": 2529,
      "castic": 2530,
      "uptight": 2531,
      "compassionate": 2532,
      "bother": 2533,
      "mentally": 2534,
      "died": 2535,
      "ideas": 2536,
      "cks": 2537,
      "afternoon": 2538,
      "pathy": 2539,
      "spect": 2540,
      "shake": 2541,
      "heartless": 2542,
      "final": 2543,
      "author": 2544,
      "office": 2545,
      "tenti": 2546,
      "lets": 2547,
      "confidence": 2548,
      "posts": 2549,
      "sens": 2550,
      "shoes": 2551,
      "leaves": 2552,
      "older": 2553,
      "ibility": 2554,
      "dreams": 2555,
      "considerate": 2556,
      "sociable": 2557,
      "genu": 2558,
      "silly": 2559,
      "currently": 2560,
      "holiday": 2561,
      "sarcastic": 2562,
      "struggling": 2563,
      "figure": 2564,
      "devoted": 2565,
      "discuss": 2566,
      "behavi": 2567,
      "earlier": 2568,
      "culture": 2569,
      "aim": 2570,
      "ail": 2571,
      "city": 2572,
      "cross": 2573,
      "dy": 2574,
      "ee": 2575,
      "fans": 2576,
      "jol": 2577,
      "spl": 2578,
      "vity": 2579,
      "wind": 2580,
      "xious": 2581,
      "yo": 2582,
      "ining": 2583,
      "els": 2584,
      "ann": 2585,
      "rec": 2586,
      "town": 2587,
      "engl": 2588,
      "stun": 2589,
      "arm": 2590,
      "vered": 2591,
      "noxious": 2592,
      "haven": 2593,
      "depression": 2594,
      "ously": 2595,
      "indi": 2596,
      "program": 2597,
      "grad": 2598,
      "contri": 2599,
      "blah": 2600,
      "blamed": 2601,
      "shamed": 2602,
      "design": 2603,
      "reality": 2604,
      "period": 2605,
      "gives": 2606,
      "badly": 2607,
      "charming": 2608,
      "obnoxious": 2609,
      "staying": 2610,
      "appreciated": 2611,
      "interesting": 2612,
      "similar": 2613,
      "purpose": 2614,
      "direction": 2615,
      "motivated": 2616,
      "service": 2617,
      "large": 2618,
      "birthday": 2619,
      "challenge": 2620,
      "favorite": 2621,
      "awesome": 2622,
      "soft": 2623,
      "exercise": 2624,
      "involved": 2625,
      "mistake": 2626,
      "increas": 2627,
      "immediately": 2628,
      "betrayed": 2629,
      "society": 2630,
      "bb": 2631,
      "hat": 2632,
      "lab": 2633,
      "none": 2634,
      "pul": 2635,
      "ray": 2636,
      "vac": 2637,
      "ws": 2638,
      "ina": 2639,
      "inve": 2640,
      "inely": 2641,
      "anim": 2642,
      "review": 2643,
      "remain": 2644,
      "ery": 2645,
      "edge": 2646,
      "stick": 2647,
      "sore": 2648,
      "lip": 2649,
      "lift": 2650,
      "lips": 2651,
      "sess": 2652,
      "above": 2653,
      "movi": 2654,
      "activ": 2655,
      "doctor": 2656,
      "sely": 2657,
      "mail": 2658,
      "pretend": 2659,
      "exist": 2660,
      "potenti": 2661,
      "mental": 2662,
      "foc": 2663,
      "grace": 2664,
      "medic": 2665,
      "workout": 2666,
      "wood": 2667,
      "tered": 2668,
      "pared": 2669,
      "blue": 2670,
      "sitive": 2671,
      "awake": 2672,
      "partner": 2673,
      "forever": 2674,
      "tree": 2675,
      "treated": 2676,
      "posted": 2677,
      "sensitive": 2678,
      "calling": 2679,
      "hurts": 2680,
      "watched": 2681,
      "travel": 2682,
      "facebook": 2683,
      "meaning": 2684,
      "hearing": 2685,
      "compan": 2686,
      "difference": 2687,
      "sunday": 2688,
      "falling": 2689,
      "business": 2690,
      "following": 2691,
      "six": 2692,
      "formation": 2693,
      "projects": 2694,
      "video": 2695,
      "suggest": 2696,
      "accident": 2697,
      "necessary": 2698,
      "neglectful": 2699,
      "profession": 2700,
      "secret": 2701,
      "aa": 2702,
      "bought": 2703,
      "jor": 2704,
      "jump": 2705,
      "mum": 2706,
      "mass": 2707,
      "nature": 2708,
      "ode": 2709,
      "pan": 2710,
      "ution": 2711,
      "inst": 2712,
      "total": 2713,
      "andom": 2714,
      "lik": 2715,
      "kes": 2716,
      "ches": 2717,
      "outraged": 2718,
      "active": 2719,
      "unless": 2720,
      "iculous": 2721,
      "goal": 2722,
      "pet": 2723,
      "deta": 2724,
      "ception": 2725,
      "major": 2726,
      "okay": 2727,
      "sport": 2728,
      "box": 2729,
      "emp": 2730,
      "embr": 2731,
      "overall": 2732,
      "chocol": 2733,
      "choices": 2734,
      "energ": 2735,
      "created": 2736,
      "ieve": 2737,
      "members": 2738,
      "takes": 2739,
      "surround": 2740,
      "girlfriend": 2741,
      "flaw": 2742,
      "cheer": 2743,
      "position": 2744,
      "internet": 2745,
      "commun": 2746,
      "oooo": 2747,
      "based": 2748,
      "legs": 2749,
      "universe": 2750,
      "changed": 2751,
      "result": 2752,
      "experiences": 2753,
      "explo": 2754,
      "nearly": 2755,
      "journey": 2756,
      "bike": 2757,
      "accomplish": 2758,
      "breathe": 2759,
      "received": 2760,
      "agree": 2761,
      "bouncy": 2762,
      "audience": 2763,
      "genuinely": 2764,
      "stunned": 2765,
      "individ": 2766,
      "movies": 2767,
      "bright": 2768,
      "cro": 2769,
      "ded": 2770,
      "gut": 2771,
      "gig": 2772,
      "jes": 2773,
      "ler": 2774,
      "law": 2775,
      "mou": 2776,
      "pal": 2777,
      "rr": 2778,
      "ran": 2779,
      "rout": 2780,
      "sid": 2781,
      "taste": 2782,
      "var": 2783,
      "wast": 2784,
      "ination": 2785,
      "information": 2786,
      "ancy": 2787,
      "repressed": 2788,
      "reaction": 2789,
      "therap": 2790,
      "attr": 2791,
      "attend": 2792,
      "alive": 2793,
      "meant": 2794,
      "becoming": 2795,
      "became": 2796,
      "lies": 2797,
      "separ": 2798,
      "among": 2799,
      "heav": 2800,
      "und": 2801,
      "caught": 2802,
      "neuro": 2803,
      "dered": 2804,
      "prefer": 2805,
      "ified": 2806,
      "poor": 2807,
      "comb": 2808,
      "knows": 2809,
      "itted": 2810,
      "events": 2811,
      "iled": 2812,
      "disco": 2813,
      "gue": 2814,
      "held": 2815,
      "strang": 2816,
      "tech": 2817,
      "field": 2818,
      "helped": 2819,
      "offic": 2820,
      "cares": 2821,
      "standing": 2822,
      "version": 2823,
      "ashion": 2824,
      "inspir": 2825,
      "studying": 2826,
      "folks": 2827,
      "vision": 2828,
      "regular": 2829,
      "ordin": 2830,
      "respon": 2831,
      "truthful": 2832,
      "benef": 2833,
      "experienced": 2834,
      "growing": 2835,
      "ridiculous": 2836,
      "teacher": 2837,
      "equally": 2838,
      "fingers": 2839,
      "effects": 2840,
      "practice": 2841,
      "miles": 2842,
      "yeah": 2843,
      "psycho": 2844,
      "episode": 2845,
      "jolly": 2846,
      "brush": 2847,
      "coffe": 2848,
      "dun": 2849,
      "fashion": 2850,
      "gin": 2851,
      "nur": 2852,
      "pound": 2853,
      "ror": 2854,
      "rac": 2855,
      "scar": 2856,
      "size": 2857,
      "tad": 2858,
      "twit": 2859,
      "wers": 2860,
      "ats": 2861,
      "online": 2862,
      "ences": 2863,
      "ands": 2864,
      "ory": 2865,
      "leep": 2866,
      "asleep": 2867,
      "beside": 2868,
      "artic": 2869,
      "sequ": 2870,
      "aband": 2871,
      "esday": 2872,
      "iding": 2873,
      "moved": 2874,
      "rock": 2875,
      "cos": 2876,
      "heat": 2877,
      "unable": 2878,
      "weve": 2879,
      "note": 2880,
      "cape": 2881,
      "alled": 2882,
      "ceed": 2883,
      "shut": 2884,
      "shif": 2885,
      "previous": 2886,
      "exper": 2887,
      "perspe": 2888,
      "spite": 2889,
      "spring": 2890,
      "provide": 2891,
      "reader": 2892,
      "grat": 2893,
      "ures": 2894,
      "relig": 2895,
      "history": 2896,
      "finan": 2897,
      "letter": 2898,
      "keeps": 2899,
      "blogs": 2900,
      "satur": 2901,
      "sweat": 2902,
      "brown": 2903,
      "resigned": 2904,
      "harder": 2905,
      "shop": 2906,
      "seemed": 2907,
      "mater": 2908,
      "skills": 2909,
      "becomes": 2910,
      "products": 2911,
      "tough": 2912,
      "decisions": 2913,
      "pieces": 2914,
      "interested": 2915,
      "pursu": 2916,
      "sounds": 2917,
      "club": 2918,
      "liter": 2919,
      "mentioned": 2920,
      "hung": 2921,
      "swim": 2922,
      "journal": 2923,
      "holidays": 2924,
      "natural": 2925,
      "noticed": 2926,
      "normally": 2927,
      "likely": 2928,
      "chocolate": 2929,
      "individual": 2930,
      "jesus": 2931,
      "mouth": 2932,
      "coffee": 2933,
      "perspective": 2934,
      "ared": 2935,
      "blow": 2936,
      "bath": 2937,
      "ffe": 2938,
      "fle": 2939,
      "langu": 2940,
      "mount": 2941,
      "pack": 2942,
      "ride": 2943,
      "site": 2944,
      "uk": 2945,
      "wl": 2946,
      "wimp": 2947,
      "ya": 2948,
      "yell": 2949,
      "zz": 2950,
      "ince": 2951,
      "instant": 2952,
      "atic": 2953,
      "tool": 2954,
      "oned": 2955,
      "album": 2956,
      "ars": 2957,
      "arily": 2958,
      "session": 2959,
      "till": 2960,
      "local": 2961,
      "motion": 2962,
      "acy": 2963,
      "hol": 2964,
      "cook": 2965,
      "dog": 2966,
      "dom": 2967,
      "wered": 2968,
      "neck": 2969,
      "dem": 2970,
      "shir": 2971,
      "ury": 2972,
      "tte": 2973,
      "common": 2974,
      "anywhere": 2975,
      "agu": 2976,
      "aster": 2977,
      "willing": 2978,
      "bot": 2979,
      "otherwise": 2980,
      "save": 2981,
      "diet": 2982,
      "grab": 2983,
      "achieve": 2984,
      "afterwards": 2985,
      "page": 2986,
      "pride": 2987,
      "manage": 2988,
      "ief": 2989,
      "realise": 2990,
      "passing": 2991,
      "treas": 2992,
      "headache": 2993,
      "shopping": 2994,
      "craving": 2995,
      "handle": 2996,
      "distance": 2997,
      "sorrow": 2998,
      "obli": 2999
    },
    "merges": [
      [
        "t",
        "h"
      ],
      [
        "i",
        "n"
      ],
      [
        "e",
        "l"
      ],
      [
        "a",
        "n"
      ],
      [
        "f",
        "e"
      ],
      [
        "fe",
        "el"
      ],
      [
        "in",
        "g"
      ],
      [
        "r",
        "e"
      ],
      [
        "th",
        "e"
      ],
      [
        "a",
        "t"
      ],
      [
        "t",
        "o"
      ],
      [
        "o",
        "u"
      ],
      [
        "o",
        "n"
      ],
      [
        "e",
        "r"
      ],
      [
        "e",
        "d"
      ],
      [
        "e",
        "n"
      ],
      [
        "an",
        "d"
      ],
      [
        "s",
        "t"
      ],
      [
        "i",
        "t"
      ],
      [
        "a",
        "l"
      ],
      [
        "o",
        "r"
      ],
      [
        "i",
        "s"
      ],
      [
        "m",
        "e"
      ],
      [
        "l",
        "e"
      ],
      [
        "a",
        "s"
      ],
      [
        "b",
        "e"
      ],
      [
        "a",
        "r"
      ],
      [
        "o",
        "f"
      ],
      [
        "v",
        "e"
      ],
      [
        "feel",
        "ing"
      ],
      [
        "m",
        "y"
      ],
      [
        "th",
        "at"
      ],
      [
        "s",
        "o"
      ],
      [
        "l",
        "i"
      ],
      [
        "l",
        "y"
      ],
      [
        "k",
        "e"
      ],
      [
        "n",
        "o"
      ],
      [
        "h",
        "a"
      ],
      [
        "w",
        "h"
      ],
      [
        "s",
        "e"
      ],
      [
        "i",
        "m"
      ],
      [
        "c",
        "h"
      ],
      [
        "a",
        "y"
      ],
      [
        "t",
        "i"
      ],
      [
        "a",
        "m"
      ],
      [
        "a",
        "b"
      ],
      [
        "e",
        "s"
      ],
      [
        "v",
        "er"
      ],
      [
        "l",
        "o"
      ],
      [
        "w",
        "i"
      ],
      [
        "u",
        "t"
      ],
      [
        "ou",
        "t"
      ],
      [
        "f",
        "or"
      ],
      [
        "li",
        "ke"
      ],
      [
        "g",
        "h"
      ],
      [
        "i",
        "d"
      ],
      [
        "m",
        "o"
      ],
      [
        "a",
        "c"
      ],
      [
        "r",
        "o"
      ],
      [
        "a",
        "d"
      ],
      [
        "l",
        "d"
      ],
      [
        "r",
        "i"
      ],
      [
        "en",
        "t"
      ],
      [
        "s",
        "u"
      ],
      [
        "w",
        "as"
      ],
      [
        "h",
        "o"
      ],
      [
        "b",
        "ut"
      ],
      [
        "c",
        "o"
      ],
      [
        "wi",
        "th"
      ],
      [
        "h",
        "e"
      ],
      [
        "u",
        "n"
      ],
      [
        "ha",
        "ve"
      ],
      [
        "u",
        "l"
      ],
      [
        "g",
        "e"
      ],
      [
        "d",
        "o"
      ],
      [
        "i",
        "c"
      ],
      [
        "th",
        "is"
      ],
      [
        "g",
        "o"
      ],
      [
        "an",
        "t"
      ],
      [
        "y",
        "ou"
      ],
      [
        "w",
        "e"
      ],
      [
        "al",
        "ly"
      ],
      [
        "l",
        "l"
      ],
      [
        "u",
        "st"
      ],
      [
        "no",
        "t"
      ],
      [
        "p",
        "e"
      ],
      [
        "s",
        "s"
      ],
      [
        "c",
        "a"
      ],
      [
        "so",
        "me"
      ],
      [
        "th",
        "ing"
      ],
      [
        "ab",
        "out"
      ],
      [
        "no",
        "w"
      ],
      [
        "gh",
        "t"
      ],
      [
        "n",
        "e"
      ],
      [
        "al",
        "l"
      ],
      [
        "on",
        "e"
      ],
      [
        "i",
        "r"
      ],
      [
        "ou",
        "ld"
      ],
      [
        "ver",
        "y"
      ],
      [
        "p",
        "p"
      ],
      [
        "i",
        "on"
      ],
      [
        "d",
        "e"
      ],
      [
        "u",
        "se"
      ],
      [
        "t",
        "er"
      ],
      [
        "j",
        "ust"
      ],
      [
        "c",
        "e"
      ],
      [
        "f",
        "ul"
      ],
      [
        "ou",
        "s"
      ],
      [
        "wh",
        "en"
      ],
      [
        "i",
        "ve"
      ],
      [
        "c",
        "on"
      ],
      [
        "r",
        "a"
      ],
      [
        "u",
        "p"
      ],
      [
        "p",
        "le"
      ],
      [
        "the",
        "r"
      ],
      [
        "re",
        "d"
      ],
      [
        "s",
        "el"
      ],
      [
        "m",
        "a"
      ],
      [
        "d",
        "ay"
      ],
      [
        "s",
        "h"
      ],
      [
        "ca",
        "use"
      ],
      [
        "w",
        "or"
      ],
      [
        "ti",
        "me"
      ],
      [
        "mo",
        "re"
      ],
      [
        "a",
        "re"
      ],
      [
        "p",
        "re"
      ],
      [
        "ar",
        "t"
      ],
      [
        "w",
        "ay"
      ],
      [
        "be",
        "cause"
      ],
      [
        "at",
        "e"
      ],
      [
        "e",
        "x"
      ],
      [
        "en",
        "d"
      ],
      [
        "u",
        "r"
      ],
      [
        "i",
        "f"
      ],
      [
        "p",
        "o"
      ],
      [
        "c",
        "an"
      ],
      [
        "t",
        "t"
      ],
      [
        "sel",
        "f"
      ],
      [
        "p",
        "er"
      ],
      [
        "co",
        "m"
      ],
      [
        "n",
        "t"
      ],
      [
        "an",
        "y"
      ],
      [
        "a",
        "in"
      ],
      [
        "k",
        "now"
      ],
      [
        "u",
        "s"
      ],
      [
        "i",
        "ll"
      ],
      [
        "r",
        "y"
      ],
      [
        "k",
        "ing"
      ],
      [
        "ho",
        "w"
      ],
      [
        "it",
        "t"
      ],
      [
        "at",
        "ed"
      ],
      [
        "re",
        "ally"
      ],
      [
        "a",
        "g"
      ],
      [
        "o",
        "d"
      ],
      [
        "b",
        "y"
      ],
      [
        "el",
        "y"
      ],
      [
        "in",
        "d"
      ],
      [
        "d",
        "on"
      ],
      [
        "ou",
        "gh"
      ],
      [
        "w",
        "ant"
      ],
      [
        "c",
        "t"
      ],
      [
        "wh",
        "at"
      ],
      [
        "ge",
        "t"
      ],
      [
        "be",
        "en"
      ],
      [
        "ab",
        "le"
      ],
      [
        "es",
        "s"
      ],
      [
        "e",
        "v"
      ],
      [
        "my",
        "self"
      ],
      [
        "ro",
        "m"
      ],
      [
        "ma",
        "ke"
      ],
      [
        "on",
        "g"
      ],
      [
        "wh",
        "o"
      ],
      [
        "th",
        "in"
      ],
      [
        "ha",
        "d"
      ],
      [
        "a",
        "st"
      ],
      [
        "l",
        "itt"
      ],
      [
        "n",
        "d"
      ],
      [
        "litt",
        "le"
      ],
      [
        "i",
        "l"
      ],
      [
        "p",
        "l"
      ],
      [
        "b",
        "it"
      ],
      [
        "q",
        "u"
      ],
      [
        "the",
        "y"
      ],
      [
        "d",
        "id"
      ],
      [
        "le",
        "ss"
      ],
      [
        "wi",
        "ll"
      ],
      [
        "at",
        "ion"
      ],
      [
        "o",
        "k"
      ],
      [
        "w",
        "ould"
      ],
      [
        "f",
        "rom"
      ],
      [
        "ar",
        "d"
      ],
      [
        "the",
        "m"
      ],
      [
        "o",
        "l"
      ],
      [
        "be",
        "ing"
      ],
      [
        "ti",
        "on"
      ],
      [
        "h",
        "er"
      ],
      [
        "v",
        "ing"
      ],
      [
        "s",
        "p"
      ],
      [
        "d",
        "is"
      ],
      [
        "o",
        "ple"
      ],
      [
        "pe",
        "ople"
      ],
      [
        "u",
        "m"
      ],
      [
        "b",
        "o"
      ],
      [
        "c",
        "i"
      ],
      [
        "e",
        "very"
      ],
      [
        "p",
        "ro"
      ],
      [
        "ou",
        "r"
      ],
      [
        "e",
        "t"
      ],
      [
        "el",
        "l"
      ],
      [
        "ac",
        "k"
      ],
      [
        "wh",
        "i"
      ],
      [
        "e",
        "m"
      ],
      [
        "o",
        "ther"
      ],
      [
        "ou",
        "nd"
      ],
      [
        "or",
        "t"
      ],
      [
        "th",
        "an"
      ],
      [
        "thin",
        "k"
      ],
      [
        "w",
        "n"
      ],
      [
        "in",
        "t"
      ],
      [
        "s",
        "a"
      ],
      [
        "the",
        "re"
      ],
      [
        "ev",
        "en"
      ],
      [
        "st",
        "ill"
      ],
      [
        "it",
        "s"
      ],
      [
        "h",
        "im"
      ],
      [
        "e",
        "p"
      ],
      [
        "o",
        "ver"
      ],
      [
        "m",
        "ent"
      ],
      [
        "li",
        "fe"
      ],
      [
        "ne",
        "ed"
      ],
      [
        "r",
        "u"
      ],
      [
        "m",
        "u"
      ],
      [
        "ti",
        "c"
      ],
      [
        "a",
        "f"
      ],
      [
        "ac",
        "t"
      ],
      [
        "i",
        "ght"
      ],
      [
        "it",
        "e"
      ],
      [
        "re",
        "ad"
      ],
      [
        "is",
        "h"
      ],
      [
        "d",
        "er"
      ],
      [
        "c",
        "ould"
      ],
      [
        "as",
        "s"
      ],
      [
        "d",
        "i"
      ],
      [
        "ha",
        "pp"
      ],
      [
        "f",
        "o"
      ],
      [
        "f",
        "ri"
      ],
      [
        "id",
        "e"
      ],
      [
        "ac",
        "e"
      ],
      [
        "lo",
        "ve"
      ],
      [
        "some",
        "thing"
      ],
      [
        "g",
        "r"
      ],
      [
        "e",
        "ar"
      ],
      [
        "p",
        "t"
      ],
      [
        "v",
        "i"
      ],
      [
        "c",
        "k"
      ],
      [
        "go",
        "ing"
      ],
      [
        "g",
        "u"
      ],
      [
        "mu",
        "ch"
      ],
      [
        "v",
        "ed"
      ],
      [
        "h",
        "el"
      ],
      [
        "thing",
        "s"
      ],
      [
        "don",
        "t"
      ],
      [
        "m",
        "ed"
      ],
      [
        "in",
        "e"
      ],
      [
        "fri",
        "end"
      ],
      [
        "w",
        "r"
      ],
      [
        "co",
        "me"
      ],
      [
        "wor",
        "k"
      ],
      [
        "st",
        "art"
      ],
      [
        "b",
        "ack"
      ],
      [
        "it",
        "y"
      ],
      [
        "s",
        "ay"
      ],
      [
        "t",
        "a"
      ],
      [
        "to",
        "o"
      ],
      [
        "lo",
        "w"
      ],
      [
        "tt",
        "y"
      ],
      [
        "u",
        "re"
      ],
      [
        "con",
        "t"
      ],
      [
        "s",
        "he"
      ],
      [
        "h",
        "as"
      ],
      [
        "a",
        "ch"
      ],
      [
        "se",
        "e"
      ],
      [
        "mo",
        "st"
      ],
      [
        "way",
        "s"
      ],
      [
        "j",
        "o"
      ],
      [
        "s",
        "to"
      ],
      [
        "st",
        "r"
      ],
      [
        "r",
        "el"
      ],
      [
        "w",
        "o"
      ],
      [
        "go",
        "od"
      ],
      [
        "an",
        "g"
      ],
      [
        "t",
        "e"
      ],
      [
        "h",
        "is"
      ],
      [
        "e",
        "re"
      ],
      [
        "ri",
        "ght"
      ],
      [
        "you",
        "r"
      ],
      [
        "pre",
        "tty"
      ],
      [
        "i",
        "g"
      ],
      [
        "er",
        "s"
      ],
      [
        "ch",
        "o"
      ],
      [
        "ad",
        "e"
      ],
      [
        "sh",
        "ould"
      ],
      [
        "ss",
        "ed"
      ],
      [
        "in",
        "to"
      ],
      [
        "s",
        "on"
      ],
      [
        "time",
        "s"
      ],
      [
        "b",
        "le"
      ],
      [
        "n",
        "ing"
      ],
      [
        "f",
        "a"
      ],
      [
        "g",
        "re"
      ],
      [
        "whi",
        "ch"
      ],
      [
        "ag",
        "ain"
      ],
      [
        "af",
        "ter"
      ],
      [
        "m",
        "is"
      ],
      [
        "the",
        "se"
      ],
      [
        "t",
        "ry"
      ],
      [
        "p",
        "a"
      ],
      [
        "the",
        "ir"
      ],
      [
        "s",
        "pe"
      ],
      [
        "al",
        "ways"
      ],
      [
        "o",
        "se"
      ],
      [
        "f",
        "i"
      ],
      [
        "y",
        "ear"
      ],
      [
        "su",
        "re"
      ],
      [
        "a",
        "pp"
      ],
      [
        "en",
        "er"
      ],
      [
        "feeling",
        "s"
      ],
      [
        "hel",
        "p"
      ],
      [
        "im",
        "p"
      ],
      [
        "b",
        "l"
      ],
      [
        "al",
        "so"
      ],
      [
        "t",
        "r"
      ],
      [
        "on",
        "ly"
      ],
      [
        "b",
        "el"
      ],
      [
        "s",
        "ha"
      ],
      [
        "to",
        "day"
      ],
      [
        "su",
        "pp"
      ],
      [
        "i",
        "ous"
      ],
      [
        "p",
        "r"
      ],
      [
        "the",
        "n"
      ],
      [
        "b",
        "er"
      ],
      [
        "ou",
        "ght"
      ],
      [
        "t",
        "al"
      ],
      [
        "w",
        "ard"
      ],
      [
        "ne",
        "w"
      ],
      [
        "feel",
        "s"
      ],
      [
        "wh",
        "ere"
      ],
      [
        "ic",
        "k"
      ],
      [
        "e",
        "k"
      ],
      [
        "th",
        "ough"
      ],
      [
        "m",
        "an"
      ],
      [
        "s",
        "it"
      ],
      [
        "m",
        "or"
      ],
      [
        "w",
        "on"
      ],
      [
        "we",
        "re"
      ],
      [
        "happ",
        "y"
      ],
      [
        "ar",
        "ound"
      ],
      [
        "he",
        "art"
      ],
      [
        "k",
        "ind"
      ],
      [
        "st",
        "re"
      ],
      [
        "ho",
        "me"
      ],
      [
        "per",
        "son"
      ],
      [
        "c",
        "re"
      ],
      [
        "th",
        "r"
      ],
      [
        "en",
        "ed"
      ],
      [
        "for",
        "t"
      ],
      [
        "c",
        "ant"
      ],
      [
        "c",
        "l"
      ],
      [
        "m",
        "ade"
      ],
      [
        "thr",
        "ough"
      ],
      [
        "f",
        "in"
      ],
      [
        "lo",
        "ok"
      ],
      [
        "i",
        "e"
      ],
      [
        "i",
        "st"
      ],
      [
        "he",
        "re"
      ],
      [
        "we",
        "ek"
      ],
      [
        "l",
        "ong"
      ],
      [
        "be",
        "t"
      ],
      [
        "lo",
        "g"
      ],
      [
        "a",
        "z"
      ],
      [
        "w",
        "ell"
      ],
      [
        "us",
        "ed"
      ],
      [
        "a",
        "u"
      ],
      [
        "do",
        "wn"
      ],
      [
        "d",
        "es"
      ],
      [
        "f",
        "re"
      ],
      [
        "m",
        "ay"
      ],
      [
        "re",
        "al"
      ],
      [
        "f",
        "el"
      ],
      [
        "t",
        "y"
      ],
      [
        "go",
        "t"
      ],
      [
        "p",
        "ar"
      ],
      [
        "e",
        "ver"
      ],
      [
        "i",
        "ly"
      ],
      [
        "lo",
        "t"
      ],
      [
        "i",
        "z"
      ],
      [
        "c",
        "ou"
      ],
      [
        "n",
        "er"
      ],
      [
        "a",
        "w"
      ],
      [
        "j",
        "e"
      ],
      [
        "day",
        "s"
      ],
      [
        "did",
        "nt"
      ],
      [
        "p",
        "art"
      ],
      [
        "st",
        "u"
      ],
      [
        "of",
        "f"
      ],
      [
        "ne",
        "ver"
      ],
      [
        "fo",
        "re"
      ],
      [
        "f",
        "t"
      ],
      [
        "th",
        "ose"
      ],
      [
        "th",
        "ought"
      ],
      [
        "fel",
        "t"
      ],
      [
        "f",
        "r"
      ],
      [
        "f",
        "ind"
      ],
      [
        "s",
        "ide"
      ],
      [
        "i",
        "es"
      ],
      [
        "whi",
        "le"
      ],
      [
        "u",
        "ally"
      ],
      [
        "an",
        "ge"
      ],
      [
        "some",
        "one"
      ],
      [
        "p",
        "h"
      ],
      [
        "g",
        "l"
      ],
      [
        "s",
        "m"
      ],
      [
        "ha",
        "ving"
      ],
      [
        "p",
        "ass"
      ],
      [
        "en",
        "ce"
      ],
      [
        "tt",
        "ing"
      ],
      [
        "k",
        "ed"
      ],
      [
        "do",
        "ing"
      ],
      [
        "make",
        "s"
      ],
      [
        "me",
        "m"
      ],
      [
        "mis",
        "s"
      ],
      [
        "jo",
        "y"
      ],
      [
        "ic",
        "e"
      ],
      [
        "t",
        "en"
      ],
      [
        "un",
        "der"
      ],
      [
        "s",
        "in"
      ],
      [
        "en",
        "ough"
      ],
      [
        "do",
        "es"
      ],
      [
        "qu",
        "ite"
      ],
      [
        "b",
        "r"
      ],
      [
        "i",
        "ld"
      ],
      [
        "o",
        "m"
      ],
      [
        "ct",
        "ed"
      ],
      [
        "m",
        "any"
      ],
      [
        "le",
        "t"
      ],
      [
        "a",
        "way"
      ],
      [
        "t",
        "re"
      ],
      [
        "p",
        "s"
      ],
      [
        "c",
        "er"
      ],
      [
        "an",
        "s"
      ],
      [
        "wh",
        "y"
      ],
      [
        "fi",
        "ed"
      ],
      [
        "p",
        "ut"
      ],
      [
        "ta",
        "ke"
      ],
      [
        "ca",
        "re"
      ],
      [
        "ce",
        "pt"
      ],
      [
        "e",
        "st"
      ],
      [
        "m",
        "on"
      ],
      [
        "st",
        "and"
      ],
      [
        "a",
        "ge"
      ],
      [
        "n",
        "ight"
      ],
      [
        "o",
        "wn"
      ],
      [
        "any",
        "thing"
      ],
      [
        "read",
        "y"
      ],
      [
        "de",
        "c"
      ],
      [
        "friend",
        "s"
      ],
      [
        "f",
        "am"
      ],
      [
        "m",
        "in"
      ],
      [
        "n",
        "a"
      ],
      [
        "li",
        "st"
      ],
      [
        "ke",
        "ep"
      ],
      [
        "ho",
        "pe"
      ],
      [
        "ter",
        "ri"
      ],
      [
        "re",
        "mem"
      ],
      [
        "bet",
        "ter"
      ],
      [
        "b",
        "log"
      ],
      [
        "t",
        "ain"
      ],
      [
        "le",
        "ft"
      ],
      [
        "be",
        "fore"
      ],
      [
        "c",
        "le"
      ],
      [
        "s",
        "at"
      ],
      [
        "with",
        "out"
      ],
      [
        "ple",
        "as"
      ],
      [
        "wor",
        "ld"
      ],
      [
        "c",
        "ar"
      ],
      [
        "l",
        "ast"
      ],
      [
        "ge",
        "tting"
      ],
      [
        "every",
        "thing"
      ],
      [
        "re",
        "f"
      ],
      [
        "t",
        "ell"
      ],
      [
        "an",
        "ce"
      ],
      [
        "at",
        "ch"
      ],
      [
        "e",
        "mo"
      ],
      [
        "act",
        "ually"
      ],
      [
        "sin",
        "ce"
      ],
      [
        "f",
        "ir"
      ],
      [
        "w",
        "a"
      ],
      [
        "d",
        "u"
      ],
      [
        "am",
        "az"
      ],
      [
        "a",
        "k"
      ],
      [
        "li",
        "ght"
      ],
      [
        "su",
        "ch"
      ],
      [
        "pre",
        "s"
      ],
      [
        "bo",
        "ok"
      ],
      [
        "h",
        "tt"
      ],
      [
        "t",
        "ru"
      ],
      [
        "u",
        "ck"
      ],
      [
        "per",
        "i"
      ],
      [
        "remem",
        "ber"
      ],
      [
        "lo",
        "o"
      ],
      [
        "ul",
        "ar"
      ],
      [
        "con",
        "f"
      ],
      [
        "won",
        "der"
      ],
      [
        "k",
        "en"
      ],
      [
        "some",
        "times"
      ],
      [
        "it",
        "ing"
      ],
      [
        "n",
        "ess"
      ],
      [
        "ra",
        "in"
      ],
      [
        "po",
        "st"
      ],
      [
        "g",
        "ener"
      ],
      [
        "s",
        "we"
      ],
      [
        "com",
        "fort"
      ],
      [
        "g",
        "ive"
      ],
      [
        "htt",
        "p"
      ],
      [
        "b",
        "ab"
      ],
      [
        "b",
        "ro"
      ],
      [
        "at",
        "ing"
      ],
      [
        "to",
        "r"
      ],
      [
        "s",
        "en"
      ],
      [
        "ch",
        "ild"
      ],
      [
        "try",
        "ing"
      ],
      [
        "t",
        "ri"
      ],
      [
        "re",
        "s"
      ],
      [
        "c",
        "ess"
      ],
      [
        "g",
        "ed"
      ],
      [
        "o",
        "p"
      ],
      [
        "r",
        "un"
      ],
      [
        "ti",
        "ve"
      ],
      [
        "ac",
        "cept"
      ],
      [
        "b",
        "ad"
      ],
      [
        "b",
        "od"
      ],
      [
        "p",
        "ain"
      ],
      [
        "fe",
        "w"
      ],
      [
        "mo",
        "ment"
      ],
      [
        "b",
        "ed"
      ],
      [
        "m",
        "en"
      ],
      [
        "fir",
        "st"
      ],
      [
        "w",
        "al"
      ],
      [
        "pre",
        "ssed"
      ],
      [
        "at",
        "ive"
      ],
      [
        "y",
        "s"
      ],
      [
        "su",
        "r"
      ],
      [
        "m",
        "ar"
      ],
      [
        "he",
        "ad"
      ],
      [
        "h",
        "or"
      ],
      [
        "h",
        "ard"
      ],
      [
        "fam",
        "ily"
      ],
      [
        "so",
        "l"
      ],
      [
        "imp",
        "ort"
      ],
      [
        "c",
        "all"
      ],
      [
        "m",
        "ind"
      ],
      [
        "n",
        "ed"
      ],
      [
        "s",
        "er"
      ],
      [
        "t",
        "ed"
      ],
      [
        "re",
        "as"
      ],
      [
        "emo",
        "tion"
      ],
      [
        "g",
        "ic"
      ],
      [
        "at",
        "ely"
      ],
      [
        "start",
        "ed"
      ],
      [
        "b",
        "re"
      ],
      [
        "t",
        "s"
      ],
      [
        "ex",
        "c"
      ],
      [
        "r",
        "it"
      ],
      [
        "s",
        "ad"
      ],
      [
        "s",
        "ho"
      ],
      [
        "sa",
        "id"
      ],
      [
        "h",
        "ate"
      ],
      [
        "t",
        "u"
      ],
      [
        "le",
        "a"
      ],
      [
        "stre",
        "ssed"
      ],
      [
        "c",
        "ra"
      ],
      [
        "g",
        "ir"
      ],
      [
        "c",
        "ent"
      ],
      [
        "g",
        "y"
      ],
      [
        "h",
        "ur"
      ],
      [
        "be",
        "g"
      ],
      [
        "se",
        "em"
      ],
      [
        "bod",
        "y"
      ],
      [
        "import",
        "ant"
      ],
      [
        "al",
        "one"
      ],
      [
        "ro",
        "w"
      ],
      [
        "t",
        "ur"
      ],
      [
        "ra",
        "ther"
      ],
      [
        "supp",
        "ort"
      ],
      [
        "f",
        "un"
      ],
      [
        "ma",
        "king"
      ],
      [
        "gir",
        "l"
      ],
      [
        "c",
        "lo"
      ],
      [
        "h",
        "i"
      ],
      [
        "v",
        "al"
      ],
      [
        "v",
        "ent"
      ],
      [
        "ve",
        "s"
      ],
      [
        "wor",
        "th"
      ],
      [
        "pass",
        "ion"
      ],
      [
        "c",
        "tion"
      ],
      [
        "p",
        "ri"
      ],
      [
        "lo",
        "ved"
      ],
      [
        "d",
        "el"
      ],
      [
        "g",
        "i"
      ],
      [
        "pl",
        "ace"
      ],
      [
        "than",
        "k"
      ],
      [
        "fre",
        "e"
      ],
      [
        "go",
        "d"
      ],
      [
        "ir",
        "d"
      ],
      [
        "com",
        "ple"
      ],
      [
        "it",
        "ed"
      ],
      [
        "al",
        "ready"
      ],
      [
        "cont",
        "ent"
      ],
      [
        "h",
        "and"
      ],
      [
        "b",
        "u"
      ],
      [
        "c",
        "u"
      ],
      [
        "h",
        "ref"
      ],
      [
        "in",
        "c"
      ],
      [
        "pl",
        "ay"
      ],
      [
        "m",
        "s"
      ],
      [
        "fe",
        "r"
      ],
      [
        "cer",
        "tain"
      ],
      [
        "s",
        "le"
      ],
      [
        "su",
        "red"
      ],
      [
        "wh",
        "el"
      ],
      [
        "cho",
        "ol"
      ],
      [
        "t",
        "wo"
      ],
      [
        "other",
        "s"
      ],
      [
        "n",
        "y"
      ],
      [
        "fe",
        "ct"
      ],
      [
        "over",
        "whel"
      ],
      [
        "o",
        "ld"
      ],
      [
        "s",
        "chool"
      ],
      [
        "y",
        "et"
      ],
      [
        "year",
        "s"
      ],
      [
        "c",
        "r"
      ],
      [
        "v",
        "o"
      ],
      [
        "po",
        "int"
      ],
      [
        "v",
        "en"
      ],
      [
        "an",
        "k"
      ],
      [
        "wr",
        "ite"
      ],
      [
        "comfort",
        "able"
      ],
      [
        "s",
        "y"
      ],
      [
        "sa",
        "me"
      ],
      [
        "no",
        "thing"
      ],
      [
        "h",
        "um"
      ],
      [
        "m",
        "at"
      ],
      [
        "s",
        "ed"
      ],
      [
        "w",
        "atch"
      ],
      [
        "co",
        "l"
      ],
      [
        "app",
        "re"
      ],
      [
        "swe",
        "et"
      ],
      [
        "v",
        "ely"
      ],
      [
        "re",
        "st"
      ],
      [
        "ci",
        "al"
      ],
      [
        "re",
        "n"
      ],
      [
        "of",
        "ten"
      ],
      [
        "under",
        "stand"
      ],
      [
        "to",
        "ward"
      ],
      [
        "ir",
        "rit"
      ],
      [
        "b",
        "ur"
      ],
      [
        "b",
        "less"
      ],
      [
        "h",
        "es"
      ],
      [
        "i",
        "b"
      ],
      [
        "is",
        "e"
      ],
      [
        "ish",
        "ed"
      ],
      [
        "str",
        "ong"
      ],
      [
        "mor",
        "ning"
      ],
      [
        "m",
        "el"
      ],
      [
        "str",
        "ange"
      ],
      [
        "sat",
        "is"
      ],
      [
        "c",
        "al"
      ],
      [
        "v",
        "el"
      ],
      [
        "passion",
        "ate"
      ],
      [
        "l",
        "ed"
      ],
      [
        "ion",
        "s"
      ],
      [
        "want",
        "ed"
      ],
      [
        "e",
        "f"
      ],
      [
        "m",
        "ight"
      ],
      [
        "s",
        "ing"
      ],
      [
        "s",
        "how"
      ],
      [
        "t",
        "ra"
      ],
      [
        "le",
        "ar"
      ],
      [
        "wor",
        "d"
      ],
      [
        "ci",
        "ally"
      ],
      [
        "f",
        "ace"
      ],
      [
        "n",
        "or"
      ],
      [
        "t",
        "ing"
      ],
      [
        "overwhel",
        "med"
      ],
      [
        "we",
        "ird"
      ],
      [
        "gu",
        "ess"
      ],
      [
        "g",
        "a"
      ],
      [
        "t",
        "end"
      ],
      [
        "ation",
        "s"
      ],
      [
        "reas",
        "on"
      ],
      [
        "val",
        "u"
      ],
      [
        "sle",
        "ep"
      ],
      [
        "b",
        "or"
      ],
      [
        "f",
        "l"
      ],
      [
        "se",
        "t"
      ],
      [
        "ust",
        "ed"
      ],
      [
        "any",
        "one"
      ],
      [
        "e",
        "as"
      ],
      [
        "i",
        "le"
      ],
      [
        "sh",
        "i"
      ],
      [
        "did",
        "n"
      ],
      [
        "s",
        "k"
      ],
      [
        "u",
        "al"
      ],
      [
        "en",
        "s"
      ],
      [
        "wr",
        "ong"
      ],
      [
        "me",
        "an"
      ],
      [
        "satis",
        "fied"
      ],
      [
        "w",
        "ent"
      ],
      [
        "en",
        "joy"
      ],
      [
        "s",
        "ick"
      ],
      [
        "w",
        "el"
      ],
      [
        "id",
        "ent"
      ],
      [
        "who",
        "le"
      ],
      [
        "sto",
        "p"
      ],
      [
        "tal",
        "k"
      ],
      [
        "amaz",
        "ing"
      ],
      [
        "b",
        "ar"
      ],
      [
        "d",
        "re"
      ],
      [
        "con",
        "s"
      ],
      [
        "um",
        "b"
      ],
      [
        "loo",
        "king"
      ],
      [
        "f",
        "f"
      ],
      [
        "is",
        "ed"
      ],
      [
        "ro",
        "om"
      ],
      [
        "ho",
        "p"
      ],
      [
        "every",
        "one"
      ],
      [
        "mon",
        "th"
      ],
      [
        "hur",
        "t"
      ],
      [
        "d",
        "if"
      ],
      [
        "on",
        "ce"
      ],
      [
        "su",
        "l"
      ],
      [
        "thin",
        "king"
      ],
      [
        "h",
        "our"
      ],
      [
        "an",
        "x"
      ],
      [
        "su",
        "b"
      ],
      [
        "ang",
        "ry"
      ],
      [
        "exc",
        "ited"
      ],
      [
        "d",
        "one"
      ],
      [
        "l",
        "on"
      ],
      [
        "an",
        "other"
      ],
      [
        "c",
        "ut"
      ],
      [
        "st",
        "e"
      ],
      [
        "vi",
        "e"
      ],
      [
        "gre",
        "at"
      ],
      [
        "c",
        "es"
      ],
      [
        "the",
        "tic"
      ],
      [
        "st",
        "up"
      ],
      [
        "lo",
        "st"
      ],
      [
        "su",
        "c"
      ],
      [
        "ex",
        "peri"
      ],
      [
        "di",
        "st"
      ],
      [
        "e",
        "y"
      ],
      [
        "k",
        "id"
      ],
      [
        "s",
        "or"
      ],
      [
        "bel",
        "ie"
      ],
      [
        "bless",
        "ed"
      ],
      [
        "e",
        "ach"
      ],
      [
        "g",
        "or"
      ],
      [
        "p",
        "u"
      ],
      [
        "x",
        "t"
      ],
      [
        "fe",
        "ar"
      ],
      [
        "ch",
        "e"
      ],
      [
        "ad",
        "m"
      ],
      [
        "c",
        "as"
      ],
      [
        "th",
        "re"
      ],
      [
        "ti",
        "red"
      ],
      [
        "cl",
        "ass"
      ],
      [
        "stup",
        "id"
      ],
      [
        "re",
        "nt"
      ],
      [
        "wr",
        "iting"
      ],
      [
        "pa",
        "thetic"
      ],
      [
        "d",
        "am"
      ],
      [
        "t",
        "ely"
      ],
      [
        "ar",
        "y"
      ],
      [
        "ust",
        "r"
      ],
      [
        "com",
        "ing"
      ],
      [
        "may",
        "be"
      ],
      [
        "d",
        "en"
      ],
      [
        "p",
        "ast"
      ],
      [
        "le",
        "ast"
      ],
      [
        "ch",
        "ar"
      ],
      [
        "ple",
        "ss"
      ],
      [
        "are",
        "nt"
      ],
      [
        "l",
        "a"
      ],
      [
        "u",
        "g"
      ],
      [
        "al",
        "most"
      ],
      [
        "po",
        "sit"
      ],
      [
        "g",
        "ent"
      ],
      [
        "m",
        "ust"
      ],
      [
        "ou",
        "se"
      ],
      [
        "ra",
        "id"
      ],
      [
        "em",
        "pt"
      ],
      [
        "comple",
        "tely"
      ],
      [
        "o",
        "b"
      ],
      [
        "am",
        "p"
      ],
      [
        "es",
        "pe"
      ],
      [
        "gu",
        "il"
      ],
      [
        "hel",
        "pless"
      ],
      [
        "real",
        "iz"
      ],
      [
        "espe",
        "cially"
      ],
      [
        "w",
        "w"
      ],
      [
        "ne",
        "xt"
      ],
      [
        "pre",
        "ss"
      ],
      [
        "sen",
        "se"
      ],
      [
        "m",
        "er"
      ],
      [
        "p",
        "ic"
      ],
      [
        "u",
        "su"
      ],
      [
        "be",
        "st"
      ],
      [
        "co",
        "ld"
      ],
      [
        "he",
        "ar"
      ],
      [
        "jo",
        "b"
      ],
      [
        "accept",
        "ed"
      ],
      [
        "f",
        "ound"
      ],
      [
        "h",
        "on"
      ],
      [
        "be",
        "come"
      ],
      [
        "we",
        "ar"
      ],
      [
        "pro",
        "du"
      ],
      [
        "s",
        "ort"
      ],
      [
        "el",
        "se"
      ],
      [
        "at",
        "i"
      ],
      [
        "ul",
        "t"
      ],
      [
        "af",
        "raid"
      ],
      [
        "f",
        "act"
      ],
      [
        "it",
        "ated"
      ],
      [
        "lea",
        "ve"
      ],
      [
        "a",
        "th"
      ],
      [
        "h",
        "ated"
      ],
      [
        "i",
        "a"
      ],
      [
        "ca",
        "me"
      ],
      [
        "in",
        "ter"
      ],
      [
        "ver",
        "s"
      ],
      [
        "tr",
        "ust"
      ],
      [
        "fr",
        "ustr"
      ],
      [
        "pleas",
        "ant"
      ],
      [
        "of",
        "fe"
      ],
      [
        "ti",
        "l"
      ],
      [
        "mo",
        "ther"
      ],
      [
        "ul",
        "l"
      ],
      [
        "per",
        "fect"
      ],
      [
        "ag",
        "itated"
      ],
      [
        "ang",
        "er"
      ],
      [
        "c",
        "ur"
      ],
      [
        "st",
        "ru"
      ],
      [
        "ag",
        "ed"
      ],
      [
        "sa",
        "fe"
      ],
      [
        "tic",
        "ular"
      ],
      [
        "par",
        "ticular"
      ],
      [
        "b",
        "ig"
      ],
      [
        "h",
        "ouse"
      ],
      [
        "w",
        "ish"
      ],
      [
        "re",
        "spe"
      ],
      [
        "that",
        "s"
      ],
      [
        "suc",
        "cess"
      ],
      [
        "c",
        "tive"
      ],
      [
        "s",
        "light"
      ],
      [
        "ou",
        "d"
      ],
      [
        "c",
        "y"
      ],
      [
        "ent",
        "s"
      ],
      [
        "itt",
        "ing"
      ],
      [
        "m",
        "us"
      ],
      [
        "on",
        "d"
      ],
      [
        "read",
        "ing"
      ],
      [
        "belie",
        "ve"
      ],
      [
        "in",
        "side"
      ],
      [
        "ri",
        "st"
      ],
      [
        "com",
        "p"
      ],
      [
        "ci",
        "ous"
      ],
      [
        "start",
        "ing"
      ],
      [
        "ner",
        "v"
      ],
      [
        "gl",
        "ad"
      ],
      [
        "f",
        "ar"
      ],
      [
        "l",
        "ately"
      ],
      [
        "to",
        "t"
      ],
      [
        "as",
        "h"
      ],
      [
        "as",
        "k"
      ],
      [
        "li",
        "ve"
      ],
      [
        "se",
        "s"
      ],
      [
        "ru",
        "sh"
      ],
      [
        "ta",
        "king"
      ],
      [
        "hor",
        "ri"
      ],
      [
        "thank",
        "ful"
      ],
      [
        "toward",
        "s"
      ],
      [
        "g",
        "le"
      ],
      [
        "in",
        "k"
      ],
      [
        "an",
        "tic"
      ],
      [
        "wonder",
        "ful"
      ],
      [
        "anx",
        "ious"
      ],
      [
        "nerv",
        "ous"
      ],
      [
        "n",
        "g"
      ],
      [
        "in",
        "ess"
      ],
      [
        "at",
        "er"
      ],
      [
        "st",
        "ay"
      ],
      [
        "ra",
        "ged"
      ],
      [
        "com",
        "m"
      ],
      [
        "tur",
        "n"
      ],
      [
        "ib",
        "ly"
      ],
      [
        "tot",
        "ally"
      ],
      [
        "d",
        "r"
      ],
      [
        "was",
        "nt"
      ],
      [
        "he",
        "al"
      ],
      [
        "un",
        "til"
      ],
      [
        "po",
        "p"
      ],
      [
        "um",
        "p"
      ],
      [
        "support",
        "ing"
      ],
      [
        "f",
        "ic"
      ],
      [
        "in",
        "sp"
      ],
      [
        "ad",
        "d"
      ],
      [
        "ent",
        "ed"
      ],
      [
        "ic",
        "ious"
      ],
      [
        "ca",
        "red"
      ],
      [
        "po",
        "ss"
      ],
      [
        "com",
        "pl"
      ],
      [
        "pl",
        "an"
      ],
      [
        "pro",
        "bab"
      ],
      [
        "cont",
        "in"
      ],
      [
        "stu",
        "d"
      ],
      [
        "probab",
        "ly"
      ],
      [
        "f",
        "uck"
      ],
      [
        "i",
        "red"
      ],
      [
        "an",
        "no"
      ],
      [
        "su",
        "per"
      ],
      [
        "co",
        "ol"
      ],
      [
        "ic",
        "ally"
      ],
      [
        "gr",
        "ate"
      ],
      [
        "sit",
        "u"
      ],
      [
        "gener",
        "ous"
      ],
      [
        "sor",
        "ry"
      ],
      [
        "anno",
        "y"
      ],
      [
        "c",
        "ri"
      ],
      [
        "g",
        "n"
      ],
      [
        "h",
        "one"
      ],
      [
        "o",
        "int"
      ],
      [
        "lo",
        "ving"
      ],
      [
        "ex",
        "pe"
      ],
      [
        "ex",
        "tre"
      ],
      [
        "app",
        "oint"
      ],
      [
        "bel",
        "o"
      ],
      [
        "sha",
        "re"
      ],
      [
        "word",
        "s"
      ],
      [
        "dif",
        "fe"
      ],
      [
        "grate",
        "ful"
      ],
      [
        "a",
        "p"
      ],
      [
        "g",
        "ro"
      ],
      [
        "at",
        "t"
      ],
      [
        "to",
        "ld"
      ],
      [
        "ur",
        "ing"
      ],
      [
        "happ",
        "en"
      ],
      [
        "ach",
        "ing"
      ],
      [
        "spe",
        "cial"
      ],
      [
        "hi",
        "gh"
      ],
      [
        "c",
        "ry"
      ],
      [
        "f",
        "ol"
      ],
      [
        "i",
        "li"
      ],
      [
        "to",
        "u"
      ],
      [
        "de",
        "ep"
      ],
      [
        "je",
        "ct"
      ],
      [
        "month",
        "s"
      ],
      [
        "slight",
        "ly"
      ],
      [
        "l",
        "uck"
      ],
      [
        "m",
        "ely"
      ],
      [
        "ig",
        "n"
      ],
      [
        "cou",
        "nt"
      ],
      [
        "appre",
        "ci"
      ],
      [
        "ing",
        "s"
      ],
      [
        "on",
        "es"
      ],
      [
        "mo",
        "ve"
      ],
      [
        "de",
        "pressed"
      ],
      [
        "wor",
        "king"
      ],
      [
        "say",
        "ing"
      ],
      [
        "sur",
        "pr"
      ],
      [
        "kid",
        "s"
      ],
      [
        "id",
        "ed"
      ],
      [
        "ic",
        "al"
      ],
      [
        "au",
        "ght"
      ],
      [
        "list",
        "en"
      ],
      [
        "beg",
        "in"
      ],
      [
        "sy",
        "m"
      ],
      [
        "shi",
        "p"
      ],
      [
        "lon",
        "ely"
      ],
      [
        "contin",
        "u"
      ],
      [
        "a",
        "x"
      ],
      [
        "f",
        "ine"
      ],
      [
        "g",
        "ing"
      ],
      [
        "i",
        "ble"
      ],
      [
        "t",
        "ful"
      ],
      [
        "v",
        "is"
      ],
      [
        "ch",
        "y"
      ],
      [
        "tt",
        "en"
      ],
      [
        "frustr",
        "ated"
      ],
      [
        "success",
        "ful"
      ],
      [
        "hone",
        "st"
      ],
      [
        "s",
        "ong"
      ],
      [
        "s",
        "cared"
      ],
      [
        "v",
        "ir"
      ],
      [
        "ch",
        "rist"
      ],
      [
        "ex",
        "ha"
      ],
      [
        "sp",
        "end"
      ],
      [
        "stu",
        "ff"
      ],
      [
        "particular",
        "ly"
      ],
      [
        "b",
        "and"
      ],
      [
        "i",
        "th"
      ],
      [
        "w",
        "er"
      ],
      [
        "w",
        "ar"
      ],
      [
        "el",
        "ess"
      ],
      [
        "to",
        "ge"
      ],
      [
        "on",
        "s"
      ],
      [
        "er",
        "able"
      ],
      [
        "ho",
        "t"
      ],
      [
        "pe",
        "ace"
      ],
      [
        "dis",
        "appoint"
      ],
      [
        "ment",
        "s"
      ],
      [
        "guil",
        "ty"
      ],
      [
        "extre",
        "mely"
      ],
      [
        "p",
        "un"
      ],
      [
        "en",
        "ti"
      ],
      [
        "st",
        "ic"
      ],
      [
        "al",
        "low"
      ],
      [
        "child",
        "ren"
      ],
      [
        "wal",
        "k"
      ],
      [
        "emotion",
        "al"
      ],
      [
        "toge",
        "ther"
      ],
      [
        "b",
        "ra"
      ],
      [
        "g",
        "er"
      ],
      [
        "i",
        "o"
      ],
      [
        "p",
        "arent"
      ],
      [
        "ha",
        "ir"
      ],
      [
        "mo",
        "m"
      ],
      [
        "con",
        "v"
      ],
      [
        "qu",
        "est"
      ],
      [
        "posit",
        "ive"
      ],
      [
        "horri",
        "ble"
      ],
      [
        "a",
        "h"
      ],
      [
        "i",
        "ev"
      ],
      [
        "m",
        "ing"
      ],
      [
        "li",
        "ked"
      ],
      [
        "id",
        "er"
      ],
      [
        "vi",
        "ous"
      ],
      [
        "cont",
        "ro"
      ],
      [
        "rel",
        "ation"
      ],
      [
        "conf",
        "ident"
      ],
      [
        "tu",
        "red"
      ],
      [
        "dre",
        "am"
      ],
      [
        "d",
        "uring"
      ],
      [
        "m",
        "al"
      ],
      [
        "o",
        "o"
      ],
      [
        "as",
        "ha"
      ],
      [
        "be",
        "at"
      ],
      [
        "em",
        "bar"
      ],
      [
        "gi",
        "ving"
      ],
      [
        "belo",
        "ved"
      ],
      [
        "j",
        "u"
      ],
      [
        "m",
        "ad"
      ],
      [
        "p",
        "ho"
      ],
      [
        "ri",
        "ous"
      ],
      [
        "de",
        "v"
      ],
      [
        "vi",
        "ol"
      ],
      [
        "fa",
        "ith"
      ],
      [
        "mis",
        "erable"
      ],
      [
        "tru",
        "ly"
      ],
      [
        "mat",
        "ter"
      ],
      [
        "c",
        "ure"
      ],
      [
        "k",
        "ward"
      ],
      [
        "ut",
        "ure"
      ],
      [
        "ac",
        "tion"
      ],
      [
        "ri",
        "ch"
      ],
      [
        "bo",
        "y"
      ],
      [
        "pr",
        "oud"
      ],
      [
        "aw",
        "kward"
      ],
      [
        "thought",
        "s"
      ],
      [
        "miss",
        "ed"
      ],
      [
        "dec",
        "is"
      ],
      [
        "terri",
        "fied"
      ],
      [
        "ey",
        "es"
      ],
      [
        "exha",
        "usted"
      ],
      [
        "f",
        "u"
      ],
      [
        "th",
        "y"
      ],
      [
        "st",
        "ant"
      ],
      [
        "it",
        "ies"
      ],
      [
        "ar",
        "ti"
      ],
      [
        "lo",
        "vely"
      ],
      [
        "un",
        "ity"
      ],
      [
        "de",
        "fe"
      ],
      [
        "can",
        "not"
      ],
      [
        "rel",
        "ax"
      ],
      [
        "d",
        "ou"
      ],
      [
        "f",
        "uture"
      ],
      [
        "i",
        "re"
      ],
      [
        "r",
        "ass"
      ],
      [
        "li",
        "c"
      ],
      [
        "se",
        "x"
      ],
      [
        "ch",
        "ange"
      ],
      [
        "wo",
        "ke"
      ],
      [
        "aw",
        "ful"
      ],
      [
        "hope",
        "ful"
      ],
      [
        "car",
        "ing"
      ],
      [
        "tor",
        "tured"
      ],
      [
        "clo",
        "se"
      ],
      [
        "vie",
        "w"
      ],
      [
        "asha",
        "med"
      ],
      [
        "re",
        "g"
      ],
      [
        "the",
        "red"
      ],
      [
        "al",
        "s"
      ],
      [
        "le",
        "s"
      ],
      [
        "li",
        "ving"
      ],
      [
        "su",
        "n"
      ],
      [
        "pp",
        "ed"
      ],
      [
        "act",
        "ed"
      ],
      [
        "ck",
        "ed"
      ],
      [
        "fin",
        "ally"
      ],
      [
        "bab",
        "y"
      ],
      [
        "res",
        "ent"
      ],
      [
        "op",
        "en"
      ],
      [
        "irrit",
        "able"
      ],
      [
        "hour",
        "s"
      ],
      [
        "contro",
        "l"
      ],
      [
        "e",
        "at"
      ],
      [
        "v",
        "ul"
      ],
      [
        "in",
        "se"
      ],
      [
        "an",
        "o"
      ],
      [
        "on",
        "t"
      ],
      [
        "al",
        "ous"
      ],
      [
        "ha",
        "vent"
      ],
      [
        "self",
        "ish"
      ],
      [
        "any",
        "more"
      ],
      [
        "gr",
        "ou"
      ],
      [
        "ist",
        "ic"
      ],
      [
        "ste",
        "ad"
      ],
      [
        "adm",
        "it"
      ],
      [
        "usu",
        "ally"
      ],
      [
        "c",
        "us"
      ],
      [
        "ed",
        "y"
      ],
      [
        "im",
        "id"
      ],
      [
        "ful",
        "l"
      ],
      [
        "sto",
        "ry"
      ],
      [
        "wo",
        "man"
      ],
      [
        "je",
        "alous"
      ],
      [
        "dec",
        "ided"
      ],
      [
        "hop",
        "eless"
      ],
      [
        "luck",
        "y"
      ],
      [
        "embar",
        "rass"
      ],
      [
        "f",
        "ab"
      ],
      [
        "f",
        "all"
      ],
      [
        "th",
        "ar"
      ],
      [
        "ho",
        "ld"
      ],
      [
        "un",
        "certain"
      ],
      [
        "de",
        "fin"
      ],
      [
        "con",
        "d"
      ],
      [
        "il",
        "ity"
      ],
      [
        "sp",
        "ent"
      ],
      [
        "di",
        "v"
      ],
      [
        "sm",
        "all"
      ],
      [
        "does",
        "nt"
      ],
      [
        "bro",
        "ken"
      ],
      [
        "experi",
        "ence"
      ],
      [
        "offe",
        "nd"
      ],
      [
        "disappoint",
        "ed"
      ],
      [
        "i",
        "ther"
      ],
      [
        "el",
        "e"
      ],
      [
        "re",
        "gre"
      ],
      [
        "or",
        "d"
      ],
      [
        "le",
        "thar"
      ],
      [
        "ab",
        "sol"
      ],
      [
        "su",
        "f"
      ],
      [
        "un",
        "sure"
      ],
      [
        "ul",
        "ous"
      ],
      [
        "we",
        "en"
      ],
      [
        "won",
        "t"
      ],
      [
        "amaz",
        "ed"
      ],
      [
        "conf",
        "used"
      ],
      [
        "cut",
        "e"
      ],
      [
        "lethar",
        "gic"
      ],
      [
        "absol",
        "ut"
      ],
      [
        "a",
        "go"
      ],
      [
        "b",
        "us"
      ],
      [
        "in",
        "stead"
      ],
      [
        "me",
        "ss"
      ],
      [
        "un",
        "happy"
      ],
      [
        "some",
        "how"
      ],
      [
        "pp",
        "y"
      ],
      [
        "de",
        "ter"
      ],
      [
        "itt",
        "y"
      ],
      [
        "bo",
        "thered"
      ],
      [
        "pro",
        "ble"
      ],
      [
        "cre",
        "ative"
      ],
      [
        "ens",
        "ive"
      ],
      [
        "cons",
        "ider"
      ],
      [
        "pop",
        "ular"
      ],
      [
        "insp",
        "ired"
      ],
      [
        "vul",
        "ner"
      ],
      [
        "k",
        "new"
      ],
      [
        "y",
        "ing"
      ],
      [
        "ch",
        "ed"
      ],
      [
        "su",
        "m"
      ],
      [
        "de",
        "al"
      ],
      [
        "could",
        "nt"
      ],
      [
        "fo",
        "od"
      ],
      [
        "ener",
        "gy"
      ],
      [
        "long",
        "er"
      ],
      [
        "je",
        "cted"
      ],
      [
        "seem",
        "s"
      ],
      [
        "fun",
        "ny"
      ],
      [
        "diffe",
        "rent"
      ],
      [
        "pho",
        "to"
      ],
      [
        "d",
        "ra"
      ],
      [
        "d",
        "ened"
      ],
      [
        "l",
        "ing"
      ],
      [
        "w",
        "in"
      ],
      [
        "st",
        "at"
      ],
      [
        "me",
        "et"
      ],
      [
        "some",
        "what"
      ],
      [
        "sh",
        "itty"
      ],
      [
        "come",
        "s"
      ],
      [
        "tal",
        "ented"
      ],
      [
        "inc",
        "ed"
      ],
      [
        "inc",
        "red"
      ],
      [
        "annoy",
        "ed"
      ],
      [
        "dev",
        "ast"
      ],
      [
        "embarrass",
        "ed"
      ],
      [
        "vulner",
        "able"
      ],
      [
        "c",
        "ed"
      ],
      [
        "d",
        "ri"
      ],
      [
        "m",
        "as"
      ],
      [
        "m",
        "one"
      ],
      [
        "o",
        "pp"
      ],
      [
        "s",
        "imp"
      ],
      [
        "t",
        "ure"
      ],
      [
        "st",
        "y"
      ],
      [
        "so",
        "on"
      ],
      [
        "ri",
        "es"
      ],
      [
        "know",
        "ing"
      ],
      [
        "ag",
        "er"
      ],
      [
        "bo",
        "th"
      ],
      [
        "week",
        "s"
      ],
      [
        "bet",
        "ween"
      ],
      [
        "cal",
        "m"
      ],
      [
        "stru",
        "g"
      ],
      [
        "situ",
        "ation"
      ],
      [
        "bra",
        "ve"
      ],
      [
        "conv",
        "inced"
      ],
      [
        "b",
        "as"
      ],
      [
        "f",
        "ill"
      ],
      [
        "g",
        "gy"
      ],
      [
        "m",
        "i"
      ],
      [
        "m",
        "ine"
      ],
      [
        "an",
        "cho"
      ],
      [
        "is",
        "ol"
      ],
      [
        "ti",
        "v"
      ],
      [
        "lo",
        "y"
      ],
      [
        "ide",
        "a"
      ],
      [
        "terri",
        "ble"
      ],
      [
        "run",
        "ning"
      ],
      [
        "bre",
        "ak"
      ],
      [
        "mel",
        "ancho"
      ],
      [
        "iev",
        "ed"
      ],
      [
        "h",
        "us"
      ],
      [
        "o",
        "pt"
      ],
      [
        "p",
        "ie"
      ],
      [
        "wh",
        "e"
      ],
      [
        "ri",
        "ed"
      ],
      [
        "un",
        "comfortable"
      ],
      [
        "dis",
        "cou"
      ],
      [
        "int",
        "el"
      ],
      [
        "int",
        "ere"
      ],
      [
        "need",
        "ed"
      ],
      [
        "ig",
        "no"
      ],
      [
        "gre",
        "edy"
      ],
      [
        "sha",
        "ken"
      ],
      [
        "par",
        "ano"
      ],
      [
        "irrit",
        "ated"
      ],
      [
        "empt",
        "y"
      ],
      [
        "respe",
        "cted"
      ],
      [
        "mus",
        "ic"
      ],
      [
        "surpr",
        "ised"
      ],
      [
        "pun",
        "ished"
      ],
      [
        "dou",
        "b"
      ],
      [
        "absolut",
        "ely"
      ],
      [
        "intere",
        "st"
      ],
      [
        "h",
        "al"
      ],
      [
        "u",
        "ct"
      ],
      [
        "in",
        "sul"
      ],
      [
        "re",
        "sp"
      ],
      [
        "st",
        "al"
      ],
      [
        "it",
        "al"
      ],
      [
        "im",
        "ag"
      ],
      [
        "pre",
        "cious"
      ],
      [
        "rel",
        "uct"
      ],
      [
        "fort",
        "un"
      ],
      [
        "min",
        "ut"
      ],
      [
        "wel",
        "come"
      ],
      [
        "fuck",
        "ed"
      ],
      [
        "inse",
        "cure"
      ],
      [
        "mone",
        "y"
      ],
      [
        "melancho",
        "ly"
      ],
      [
        "c",
        "our"
      ],
      [
        "d",
        "anger"
      ],
      [
        "k",
        "y"
      ],
      [
        "fe",
        "st"
      ],
      [
        "or",
        "s"
      ],
      [
        "as",
        "ked"
      ],
      [
        "im",
        "pressed"
      ],
      [
        "sp",
        "ir"
      ],
      [
        "tr",
        "ou"
      ],
      [
        "viol",
        "ent"
      ],
      [
        "offend",
        "ed"
      ],
      [
        "devast",
        "ated"
      ],
      [
        "hus",
        "band"
      ],
      [
        "discou",
        "raged"
      ],
      [
        "reluct",
        "ant"
      ],
      [
        "d",
        "ull"
      ],
      [
        "n",
        "ice"
      ],
      [
        "n",
        "umb"
      ],
      [
        "p",
        "is"
      ],
      [
        "re",
        "jected"
      ],
      [
        "ad",
        "vent"
      ],
      [
        "ge",
        "ous"
      ],
      [
        "use",
        "ful"
      ],
      [
        "sh",
        "y"
      ],
      [
        "wo",
        "men"
      ],
      [
        "home",
        "sick"
      ],
      [
        "au",
        "ti"
      ],
      [
        "bur",
        "dened"
      ],
      [
        "bor",
        "n"
      ],
      [
        "sk",
        "in"
      ],
      [
        "fol",
        "low"
      ],
      [
        "resent",
        "ful"
      ],
      [
        "defin",
        "it"
      ],
      [
        "suf",
        "fer"
      ],
      [
        "deter",
        "min"
      ],
      [
        "a",
        "ir"
      ],
      [
        "d",
        "den"
      ],
      [
        "s",
        "i"
      ],
      [
        "s",
        "im"
      ],
      [
        "s",
        "itting"
      ],
      [
        "is",
        "su"
      ],
      [
        "as",
        "sured"
      ],
      [
        "for",
        "m"
      ],
      [
        "we",
        "ight"
      ],
      [
        "bl",
        "ed"
      ],
      [
        "tal",
        "king"
      ],
      [
        "ph",
        "ys"
      ],
      [
        "col",
        "le"
      ],
      [
        "ga",
        "me"
      ],
      [
        "parent",
        "s"
      ],
      [
        "div",
        "ine"
      ],
      [
        "simp",
        "ly"
      ],
      [
        "a",
        "v"
      ],
      [
        "c",
        "king"
      ],
      [
        "re",
        "sol"
      ],
      [
        "to",
        "n"
      ],
      [
        "to",
        "night"
      ],
      [
        "le",
        "g"
      ],
      [
        "be",
        "auti"
      ],
      [
        "su",
        "dden"
      ],
      [
        "con",
        "stant"
      ],
      [
        "sel",
        "ess"
      ],
      [
        "ast",
        "ic"
      ],
      [
        "bit",
        "ter"
      ],
      [
        "di",
        "str"
      ],
      [
        "happ",
        "ened"
      ],
      [
        "see",
        "ing"
      ],
      [
        "fr",
        "ont"
      ],
      [
        "gor",
        "geous"
      ],
      [
        "rush",
        "ed"
      ],
      [
        "isol",
        "ated"
      ],
      [
        "opt",
        "im"
      ],
      [
        "beauti",
        "ful"
      ],
      [
        "h",
        "ensive"
      ],
      [
        "l",
        "ine"
      ],
      [
        "u",
        "seless"
      ],
      [
        "in",
        "no"
      ],
      [
        "ho",
        "we"
      ],
      [
        "you",
        "re"
      ],
      [
        "us",
        "ing"
      ],
      [
        "kind",
        "a"
      ],
      [
        "week",
        "end"
      ],
      [
        "iz",
        "e"
      ],
      [
        "wa",
        "ke"
      ],
      [
        "tru",
        "th"
      ],
      [
        "cu",
        "rious"
      ],
      [
        "cr",
        "ank"
      ],
      [
        "hes",
        "it"
      ],
      [
        "expe",
        "ct"
      ],
      [
        "whe",
        "ther"
      ],
      [
        "parano",
        "id"
      ],
      [
        "howe",
        "ver"
      ],
      [
        "crank",
        "y"
      ],
      [
        "b",
        "lo"
      ],
      [
        "d",
        "ir"
      ],
      [
        "f",
        "ant"
      ],
      [
        "p",
        "ur"
      ],
      [
        "s",
        "ound"
      ],
      [
        "th",
        "ri"
      ],
      [
        "re",
        "mind"
      ],
      [
        "so",
        "ci"
      ],
      [
        "no",
        "stal"
      ],
      [
        "se",
        "cond"
      ],
      [
        "ac",
        "ter"
      ],
      [
        "pp",
        "ing"
      ],
      [
        "want",
        "ing"
      ],
      [
        "dis",
        "g"
      ],
      [
        "int",
        "imid"
      ],
      [
        "there",
        "s"
      ],
      [
        "ru",
        "de"
      ],
      [
        "gu",
        "y"
      ],
      [
        "fa",
        "ir"
      ],
      [
        "iz",
        "ed"
      ],
      [
        "book",
        "s"
      ],
      [
        "rain",
        "ed"
      ],
      [
        "beg",
        "an"
      ],
      [
        "appre",
        "hensive"
      ],
      [
        "char",
        "acter"
      ],
      [
        "beat",
        "en"
      ],
      [
        "insul",
        "ted"
      ],
      [
        "danger",
        "ous"
      ],
      [
        "determin",
        "ed"
      ],
      [
        "d",
        "umb"
      ],
      [
        "f",
        "it"
      ],
      [
        "g",
        "loo"
      ],
      [
        "o",
        "t"
      ],
      [
        "o",
        "red"
      ],
      [
        "s",
        "po"
      ],
      [
        "to",
        "ok"
      ],
      [
        "ro",
        "ss"
      ],
      [
        "un",
        "i"
      ],
      [
        "con",
        "ne"
      ],
      [
        "sh",
        "es"
      ],
      [
        "supp",
        "or"
      ],
      [
        "since",
        "re"
      ],
      [
        "pres",
        "sured"
      ],
      [
        "valu",
        "able"
      ],
      [
        "dist",
        "ur"
      ],
      [
        "thre",
        "at"
      ],
      [
        "ug",
        "ly"
      ],
      [
        "hon",
        "ored"
      ],
      [
        "gro",
        "ggy"
      ],
      [
        "faith",
        "ful"
      ],
      [
        "relax",
        "ed"
      ],
      [
        "hal",
        "f"
      ],
      [
        "pis",
        "sed"
      ],
      [
        "inno",
        "cent"
      ],
      [
        "gloo",
        "my"
      ],
      [
        "d",
        "ar"
      ],
      [
        "e",
        "ither"
      ],
      [
        "g",
        "en"
      ],
      [
        "g",
        "one"
      ],
      [
        "i",
        "et"
      ],
      [
        "s",
        "ent"
      ],
      [
        "ou",
        "nt"
      ],
      [
        "ch",
        "ang"
      ],
      [
        "un",
        "welcome"
      ],
      [
        "you",
        "ng"
      ],
      [
        "friend",
        "ly"
      ],
      [
        "ade",
        "qu"
      ],
      [
        "again",
        "st"
      ],
      [
        "bl",
        "ank"
      ],
      [
        "cou",
        "ple"
      ],
      [
        "sm",
        "art"
      ],
      [
        "joy",
        "ful"
      ],
      [
        "watch",
        "ing"
      ],
      [
        "valu",
        "ed"
      ],
      [
        "wrong",
        "ed"
      ],
      [
        "pic",
        "ture"
      ],
      [
        "ati",
        "ent"
      ],
      [
        "honest",
        "ly"
      ],
      [
        "incred",
        "ibly"
      ],
      [
        "optim",
        "istic"
      ],
      [
        "a",
        "ke"
      ],
      [
        "s",
        "l"
      ],
      [
        "in",
        "s"
      ],
      [
        "dis",
        "satisfied"
      ],
      [
        "need",
        "s"
      ],
      [
        "fo",
        "ol"
      ],
      [
        "heart",
        "broken"
      ],
      [
        "person",
        "al"
      ],
      [
        "cl",
        "u"
      ],
      [
        "long",
        "ing"
      ],
      [
        "cra",
        "ppy"
      ],
      [
        "worth",
        "less"
      ],
      [
        "gi",
        "ven"
      ],
      [
        "sym",
        "pathetic"
      ],
      [
        "intel",
        "li"
      ],
      [
        "igno",
        "red"
      ],
      [
        "dir",
        "ty"
      ],
      [
        "intimid",
        "ated"
      ],
      [
        "n",
        "aught"
      ],
      [
        "s",
        "c"
      ],
      [
        "or",
        "der"
      ],
      [
        "mo",
        "od"
      ],
      [
        "su",
        "peri"
      ],
      [
        "ma",
        "ch"
      ],
      [
        "ex",
        "act"
      ],
      [
        "us",
        "ion"
      ],
      [
        "pl",
        "ain"
      ],
      [
        "dis",
        "heart"
      ],
      [
        "gr",
        "ound"
      ],
      [
        "pleas",
        "ed"
      ],
      [
        "thre",
        "e"
      ],
      [
        "ww",
        "w"
      ],
      [
        "produ",
        "ctive"
      ],
      [
        "relation",
        "ship"
      ],
      [
        "fortun",
        "ate"
      ],
      [
        "threat",
        "ened"
      ],
      [
        "superi",
        "or"
      ],
      [
        "disheart",
        "ened"
      ],
      [
        "l",
        "it"
      ],
      [
        "l",
        "ous"
      ],
      [
        "o",
        "sed"
      ],
      [
        "u",
        "ght"
      ],
      [
        "z",
        "y"
      ],
      [
        "in",
        "adequ"
      ],
      [
        "re",
        "sul"
      ],
      [
        "at",
        "ure"
      ],
      [
        "rom",
        "antic"
      ],
      [
        "bro",
        "ke"
      ],
      [
        "mar",
        "k"
      ],
      [
        "call",
        "ed"
      ],
      [
        "mel",
        "low"
      ],
      [
        "realiz",
        "e"
      ],
      [
        "regre",
        "tful"
      ],
      [
        "fest",
        "ive"
      ],
      [
        "definit",
        "ely"
      ],
      [
        "hesit",
        "ant"
      ],
      [
        "lous",
        "y"
      ],
      [
        "v",
        "ain"
      ],
      [
        "st",
        "er"
      ],
      [
        "ad",
        "ed"
      ],
      [
        "ge",
        "tic"
      ],
      [
        "ll",
        "ed"
      ],
      [
        "up",
        "set"
      ],
      [
        "fa",
        "il"
      ],
      [
        "des",
        "p"
      ],
      [
        "est",
        "er"
      ],
      [
        "na",
        "me"
      ],
      [
        "cle",
        "ver"
      ],
      [
        "del",
        "icious"
      ],
      [
        "cour",
        "se"
      ],
      [
        "spir",
        "it"
      ],
      [
        "resol",
        "ved"
      ],
      [
        "distur",
        "bed"
      ],
      [
        "naught",
        "y"
      ],
      [
        "a",
        "king"
      ],
      [
        "b",
        "en"
      ],
      [
        "d",
        "ro"
      ],
      [
        "e",
        "ating"
      ],
      [
        "h",
        "ind"
      ],
      [
        "i",
        "an"
      ],
      [
        "p",
        "ay"
      ],
      [
        "y",
        "ester"
      ],
      [
        "st",
        "ate"
      ],
      [
        "li",
        "m"
      ],
      [
        "ut",
        "ter"
      ],
      [
        "ic",
        "t"
      ],
      [
        "ma",
        "in"
      ],
      [
        "com",
        "ed"
      ],
      [
        "bit",
        "chy"
      ],
      [
        "vi",
        "le"
      ],
      [
        "vi",
        "gor"
      ],
      [
        "gu",
        "ys"
      ],
      [
        "fa",
        "ke"
      ],
      [
        "ener",
        "getic"
      ],
      [
        "br",
        "ing"
      ],
      [
        "wa",
        "iting"
      ],
      [
        "ser",
        "ious"
      ],
      [
        "sho",
        "cked"
      ],
      [
        "hum",
        "ili"
      ],
      [
        "experi",
        "en"
      ],
      [
        "dam",
        "aged"
      ],
      [
        "sty",
        "le"
      ],
      [
        "nostal",
        "gic"
      ],
      [
        "suppor",
        "tive"
      ],
      [
        "intelli",
        "gent"
      ],
      [
        "yester",
        "day"
      ],
      [
        "d",
        "rained"
      ],
      [
        "g",
        "row"
      ],
      [
        "s",
        "il"
      ],
      [
        "en",
        "g"
      ],
      [
        "li",
        "ves"
      ],
      [
        "wh",
        "ate"
      ],
      [
        "am",
        "er"
      ],
      [
        "out",
        "side"
      ],
      [
        "et",
        "c"
      ],
      [
        "tru",
        "e"
      ],
      [
        "tri",
        "ed"
      ],
      [
        "men",
        "tion"
      ],
      [
        "fear",
        "ful"
      ],
      [
        "trou",
        "bled"
      ],
      [
        "distr",
        "acted"
      ],
      [
        "fant",
        "astic"
      ],
      [
        "inadequ",
        "ate"
      ],
      [
        "humili",
        "ated"
      ],
      [
        "g",
        "ra"
      ],
      [
        "s",
        "low"
      ],
      [
        "ent",
        "er"
      ],
      [
        "ic",
        "ate"
      ],
      [
        "pe",
        "tty"
      ],
      [
        "de",
        "p"
      ],
      [
        "ex",
        "am"
      ],
      [
        "pro",
        "ject"
      ],
      [
        "sha",
        "ky"
      ],
      [
        "supp",
        "osed"
      ],
      [
        "sm",
        "ile"
      ],
      [
        "gent",
        "le"
      ],
      [
        "defe",
        "ated"
      ],
      [
        "sum",
        "mer"
      ],
      [
        "loy",
        "al"
      ],
      [
        "sudden",
        "ly"
      ],
      [
        "disg",
        "usted"
      ],
      [
        "whate",
        "ver"
      ],
      [
        "e",
        "ager"
      ],
      [
        "l",
        "ack"
      ],
      [
        "l",
        "au"
      ],
      [
        "s",
        "ou"
      ],
      [
        "t",
        "ear"
      ],
      [
        "in",
        "v"
      ],
      [
        "me",
        "mor"
      ],
      [
        "be",
        "hind"
      ],
      [
        "ar",
        "ing"
      ],
      [
        "ar",
        "ch"
      ],
      [
        "for",
        "ward"
      ],
      [
        "ro",
        "tten"
      ],
      [
        "un",
        "important"
      ],
      [
        "ss",
        "ion"
      ],
      [
        "de",
        "pri"
      ],
      [
        "when",
        "ever"
      ],
      [
        "ex",
        "p"
      ],
      [
        "ex",
        "press"
      ],
      [
        "qu",
        "e"
      ],
      [
        "rel",
        "ieved"
      ],
      [
        "spe",
        "ak"
      ],
      [
        "care",
        "free"
      ],
      [
        "list",
        "less"
      ],
      [
        "gener",
        "ally"
      ],
      [
        "tend",
        "er"
      ],
      [
        "bor",
        "ing"
      ],
      [
        "wel",
        "comed"
      ],
      [
        "la",
        "me"
      ],
      [
        "trust",
        "ing"
      ],
      [
        "vir",
        "tu"
      ],
      [
        "fab",
        "ulous"
      ],
      [
        "o",
        "med"
      ],
      [
        "p",
        "ick"
      ],
      [
        "s",
        "cre"
      ],
      [
        "re",
        "ce"
      ],
      [
        "re",
        "bel"
      ],
      [
        "ou",
        "red"
      ],
      [
        "it",
        "u"
      ],
      [
        "it",
        "ion"
      ],
      [
        "al",
        "ong"
      ],
      [
        "is",
        "ing"
      ],
      [
        "is",
        "nt"
      ],
      [
        "le",
        "ad"
      ],
      [
        "id",
        "io"
      ],
      [
        "un",
        "fortunate"
      ],
      [
        "ne",
        "ar"
      ],
      [
        "ex",
        "plain"
      ],
      [
        "need",
        "y"
      ],
      [
        "pr",
        "ay"
      ],
      [
        "sing",
        "le"
      ],
      [
        "eas",
        "y"
      ],
      [
        "cur",
        "rent"
      ],
      [
        "continu",
        "e"
      ],
      [
        "christ",
        "mas"
      ],
      [
        "opp",
        "ort"
      ],
      [
        "exact",
        "ly"
      ],
      [
        "depri",
        "ved"
      ],
      [
        "h",
        "ar"
      ],
      [
        "l",
        "and"
      ],
      [
        "l",
        "ate"
      ],
      [
        "o",
        "c"
      ],
      [
        "p",
        "ort"
      ],
      [
        "t",
        "rain"
      ],
      [
        "re",
        "cent"
      ],
      [
        "al",
        "though"
      ],
      [
        "li",
        "ous"
      ],
      [
        "do",
        "omed"
      ],
      [
        "ur",
        "ous"
      ],
      [
        "tic",
        "al"
      ],
      [
        "ta",
        "ken"
      ],
      [
        "imp",
        "atient"
      ],
      [
        "stre",
        "ss"
      ],
      [
        "hor",
        "ny"
      ],
      [
        "bu",
        "y"
      ],
      [
        "rest",
        "less"
      ],
      [
        "realiz",
        "ed"
      ],
      [
        "tou",
        "ch"
      ],
      [
        "peace",
        "ful"
      ],
      [
        "advent",
        "urous"
      ],
      [
        "suffer",
        "ing"
      ],
      [
        "rebel",
        "lious"
      ],
      [
        "b",
        "al"
      ],
      [
        "d",
        "a"
      ],
      [
        "h",
        "un"
      ],
      [
        "l",
        "ater"
      ],
      [
        "m",
        "id"
      ],
      [
        "im",
        "ent"
      ],
      [
        "ch",
        "all"
      ],
      [
        "ful",
        "ly"
      ],
      [
        "sel",
        "ves"
      ],
      [
        "sh",
        "ort"
      ],
      [
        "fri",
        "ght"
      ],
      [
        "te",
        "am"
      ],
      [
        "fa",
        "ther"
      ],
      [
        "des",
        "er"
      ],
      [
        "stu",
        "b"
      ],
      [
        "worth",
        "while"
      ],
      [
        "hum",
        "an"
      ],
      [
        "ef",
        "fort"
      ],
      [
        "lear",
        "n"
      ],
      [
        "nor",
        "mal"
      ],
      [
        "count",
        "ry"
      ],
      [
        "thri",
        "lled"
      ],
      [
        "virtu",
        "ous"
      ],
      [
        "b",
        "ly"
      ],
      [
        "f",
        "il"
      ],
      [
        "h",
        "u"
      ],
      [
        "j",
        "aded"
      ],
      [
        "r",
        "ing"
      ],
      [
        "r",
        "id"
      ],
      [
        "s",
        "w"
      ],
      [
        "or",
        "ous"
      ],
      [
        "ti",
        "ce"
      ],
      [
        "un",
        "grateful"
      ],
      [
        "ct",
        "s"
      ],
      [
        "qu",
        "ick"
      ],
      [
        "um",
        "ph"
      ],
      [
        "sa",
        "w"
      ],
      [
        "fo",
        "cus"
      ],
      [
        "te",
        "ach"
      ],
      [
        "fin",
        "ish"
      ],
      [
        "tri",
        "umph"
      ],
      [
        "girl",
        "s"
      ],
      [
        "pri",
        "vile"
      ],
      [
        "content",
        "ed"
      ],
      [
        "ump",
        "y"
      ],
      [
        "begin",
        "ning"
      ],
      [
        "arti",
        "stic"
      ],
      [
        "e",
        "c"
      ],
      [
        "f",
        "ac"
      ],
      [
        "j",
        "our"
      ],
      [
        "v",
        "ide"
      ],
      [
        "in",
        "vigor"
      ],
      [
        "lo",
        "ss"
      ],
      [
        "mo",
        "vie"
      ],
      [
        "was",
        "n"
      ],
      [
        "ge",
        "st"
      ],
      [
        "con",
        "vers"
      ],
      [
        "pre",
        "gn"
      ],
      [
        "know",
        "n"
      ],
      [
        "pro",
        "te"
      ],
      [
        "mu",
        "g"
      ],
      [
        "di",
        "re"
      ],
      [
        "des",
        "cri"
      ],
      [
        "cle",
        "an"
      ],
      [
        "tell",
        "ing"
      ],
      [
        "accept",
        "able"
      ],
      [
        "lear",
        "ned"
      ],
      [
        "hon",
        "oured"
      ],
      [
        "heal",
        "thy"
      ],
      [
        "stud",
        "ents"
      ],
      [
        "war",
        "m"
      ],
      [
        "proble",
        "ms"
      ],
      [
        "fool",
        "ish"
      ],
      [
        "fright",
        "ened"
      ],
      [
        "stub",
        "born"
      ],
      [
        "invigor",
        "ated"
      ],
      [
        "b",
        "i"
      ],
      [
        "g",
        "if"
      ],
      [
        "n",
        "i"
      ],
      [
        "o",
        "h"
      ],
      [
        "s",
        "mug"
      ],
      [
        "re",
        "ach"
      ],
      [
        "ou",
        "n"
      ],
      [
        "li",
        "e"
      ],
      [
        "se",
        "en"
      ],
      [
        "ab",
        "used"
      ],
      [
        "ab",
        "ility"
      ],
      [
        "mo",
        "ving"
      ],
      [
        "ho",
        "li"
      ],
      [
        "co",
        "ver"
      ],
      [
        "with",
        "in"
      ],
      [
        "up",
        "on"
      ],
      [
        "end",
        "ed"
      ],
      [
        "il",
        "s"
      ],
      [
        "dis",
        "content"
      ],
      [
        "gr",
        "umpy"
      ],
      [
        "cle",
        "ar"
      ],
      [
        "pres",
        "ent"
      ],
      [
        "sub",
        "miss"
      ],
      [
        "constant",
        "ly"
      ],
      [
        "lau",
        "gh"
      ],
      [
        "c",
        "ing"
      ],
      [
        "f",
        "ast"
      ],
      [
        "s",
        "ist"
      ],
      [
        "v",
        "ital"
      ],
      [
        "ke",
        "t"
      ],
      [
        "ti",
        "ght"
      ],
      [
        "lo",
        "se"
      ],
      [
        "mo",
        "tiv"
      ],
      [
        "ad",
        "v"
      ],
      [
        "sh",
        "it"
      ],
      [
        "po",
        "wer"
      ],
      [
        "sto",
        "mach"
      ],
      [
        "fa",
        "v"
      ],
      [
        "pa",
        "th"
      ],
      [
        "des",
        "ire"
      ],
      [
        "ty",
        "pe"
      ],
      [
        "tre",
        "at"
      ],
      [
        "moment",
        "s"
      ],
      [
        "ser",
        "v"
      ],
      [
        "emotion",
        "s"
      ],
      [
        "del",
        "icate"
      ],
      [
        "lear",
        "ning"
      ],
      [
        "poss",
        "ible"
      ],
      [
        "opport",
        "unity"
      ],
      [
        "triumph",
        "ant"
      ],
      [
        "c",
        "or"
      ],
      [
        "f",
        "low"
      ],
      [
        "f",
        "ond"
      ],
      [
        "t",
        "em"
      ],
      [
        "z",
        "e"
      ],
      [
        "st",
        "ep"
      ],
      [
        "me",
        "t"
      ],
      [
        "le",
        "vel"
      ],
      [
        "se",
        "arch"
      ],
      [
        "ev",
        "ent"
      ],
      [
        "sp",
        "ace"
      ],
      [
        "work",
        "ed"
      ],
      [
        "fr",
        "antic"
      ],
      [
        "ph",
        "one"
      ],
      [
        "does",
        "n"
      ],
      [
        "put",
        "ting"
      ],
      [
        "terri",
        "fic"
      ],
      [
        "hand",
        "s"
      ],
      [
        "pu",
        "b"
      ],
      [
        "dam",
        "n"
      ],
      [
        "ap",
        "pe"
      ],
      [
        "pie",
        "ce"
      ],
      [
        "minut",
        "es"
      ],
      [
        "privile",
        "ged"
      ],
      [
        "b",
        "ir"
      ],
      [
        "d",
        "ing"
      ],
      [
        "e",
        "red"
      ],
      [
        "g",
        "s"
      ],
      [
        "r",
        "c"
      ],
      [
        "an",
        "na"
      ],
      [
        "an",
        "ces"
      ],
      [
        "to",
        "p"
      ],
      [
        "me",
        "ans"
      ],
      [
        "of",
        "fer"
      ],
      [
        "ab",
        "ly"
      ],
      [
        "ent",
        "ly"
      ],
      [
        "su",
        "g"
      ],
      [
        "su",
        "sp"
      ],
      [
        "un",
        "loved"
      ],
      [
        "go",
        "es"
      ],
      [
        "get",
        "s"
      ],
      [
        "gr",
        "and"
      ],
      [
        "ach",
        "e"
      ],
      [
        "wal",
        "ked"
      ],
      [
        "hi",
        "bit"
      ],
      [
        "del",
        "ight"
      ],
      [
        "thank",
        "s"
      ],
      [
        "ren",
        "ce"
      ],
      [
        "pu",
        "sh"
      ],
      [
        "cas",
        "ual"
      ],
      [
        "deep",
        "ly"
      ],
      [
        "stat",
        "ic"
      ],
      [
        "ec",
        "static"
      ],
      [
        "submiss",
        "ive"
      ],
      [
        "b",
        "rain"
      ],
      [
        "h",
        "y"
      ],
      [
        "l",
        "ar"
      ],
      [
        "o",
        "s"
      ],
      [
        "p",
        "tical"
      ],
      [
        "s",
        "rc"
      ],
      [
        "y",
        "es"
      ],
      [
        "fe",
        "ed"
      ],
      [
        "ke",
        "pt"
      ],
      [
        "am",
        "ount"
      ],
      [
        "ho",
        "st"
      ],
      [
        "do",
        "w"
      ],
      [
        "go",
        "tten"
      ],
      [
        "wor",
        "ried"
      ],
      [
        "know",
        "led"
      ],
      [
        "would",
        "nt"
      ],
      [
        "int",
        "en"
      ],
      [
        "te",
        "en"
      ],
      [
        "pa",
        "per"
      ],
      [
        "look",
        "s"
      ],
      [
        "reas",
        "sured"
      ],
      [
        "quest",
        "ion"
      ],
      [
        "c",
        "tor"
      ],
      [
        "d",
        "ate"
      ],
      [
        "k",
        "is"
      ],
      [
        "p",
        "tion"
      ],
      [
        "s",
        "ar"
      ],
      [
        "s",
        "ke"
      ],
      [
        "w",
        "ater"
      ],
      [
        "th",
        "row"
      ],
      [
        "it",
        "le"
      ],
      [
        "ch",
        "ur"
      ],
      [
        "ver",
        "se"
      ],
      [
        "ut",
        "y"
      ],
      [
        "con",
        "cer"
      ],
      [
        "wor",
        "ry"
      ],
      [
        "ex",
        "t"
      ],
      [
        "want",
        "s"
      ],
      [
        "fin",
        "ished"
      ],
      [
        "gl",
        "am"
      ],
      [
        "ten",
        "tion"
      ],
      [
        "du",
        "e"
      ],
      [
        "wal",
        "king"
      ],
      [
        "lea",
        "ving"
      ],
      [
        "usu",
        "al"
      ],
      [
        "wear",
        "ing"
      ],
      [
        "respe",
        "ct"
      ],
      [
        "poss",
        "ibly"
      ],
      [
        "appreci",
        "ative"
      ],
      [
        "grou",
        "p"
      ],
      [
        "imag",
        "ine"
      ],
      [
        "desp",
        "ite"
      ],
      [
        "sou",
        "l"
      ],
      [
        "bir",
        "th"
      ],
      [
        "c",
        "ha"
      ],
      [
        "d",
        "le"
      ],
      [
        "e",
        "qu"
      ],
      [
        "f",
        "ing"
      ],
      [
        "g",
        "ain"
      ],
      [
        "n",
        "on"
      ],
      [
        "r",
        "ound"
      ],
      [
        "w",
        "all"
      ],
      [
        "an",
        "e"
      ],
      [
        "at",
        "tention"
      ],
      [
        "en",
        "vious"
      ],
      [
        "se",
        "as"
      ],
      [
        "ch",
        "ance"
      ],
      [
        "ac",
        "c"
      ],
      [
        "ac",
        "compl"
      ],
      [
        "ra",
        "p"
      ],
      [
        "end",
        "ing"
      ],
      [
        "com",
        "ments"
      ],
      [
        "ill",
        "usion"
      ],
      [
        "supp",
        "ose"
      ],
      [
        "bre",
        "a"
      ],
      [
        "dr",
        "ink"
      ],
      [
        "strug",
        "gl"
      ],
      [
        "utter",
        "ly"
      ],
      [
        "serious",
        "ly"
      ],
      [
        "amer",
        "ic"
      ],
      [
        "itu",
        "de"
      ],
      [
        "iment",
        "al"
      ],
      [
        "knowled",
        "ge"
      ],
      [
        "a",
        "po"
      ],
      [
        "d",
        "az"
      ],
      [
        "f",
        "our"
      ],
      [
        "f",
        "ight"
      ],
      [
        "g",
        "an"
      ],
      [
        "g",
        "on"
      ],
      [
        "i",
        "al"
      ],
      [
        "k",
        "ick"
      ],
      [
        "r",
        "ely"
      ],
      [
        "u",
        "e"
      ],
      [
        "v",
        "id"
      ],
      [
        "v",
        "ict"
      ],
      [
        "w",
        "ed"
      ],
      [
        "at",
        "es"
      ],
      [
        "ar",
        "ms"
      ],
      [
        "so",
        "cial"
      ],
      [
        "ha",
        "ps"
      ],
      [
        "ac",
        "ross"
      ],
      [
        "ri",
        "c"
      ],
      [
        "ho",
        "od"
      ],
      [
        "he",
        "ard"
      ],
      [
        "we",
        "a"
      ],
      [
        "um",
        "ber"
      ],
      [
        "sto",
        "ries"
      ],
      [
        "fi",
        "gu"
      ],
      [
        "new",
        "s"
      ],
      [
        "mor",
        "row"
      ],
      [
        "stre",
        "ng"
      ],
      [
        "strong",
        "ly"
      ],
      [
        "ef",
        "fect"
      ],
      [
        "tra",
        "gic"
      ],
      [
        "shi",
        "ps"
      ],
      [
        "fu",
        "cking"
      ],
      [
        "dar",
        "k"
      ],
      [
        "sent",
        "imental"
      ],
      [
        "ske",
        "ptical"
      ],
      [
        "chur",
        "ch"
      ],
      [
        "vict",
        "im"
      ],
      [
        "b",
        "ing"
      ],
      [
        "b",
        "all"
      ],
      [
        "b",
        "ag"
      ],
      [
        "d",
        "ad"
      ],
      [
        "f",
        "ur"
      ],
      [
        "i",
        "gh"
      ],
      [
        "k",
        "s"
      ],
      [
        "l",
        "az"
      ],
      [
        "p",
        "ull"
      ],
      [
        "r",
        "ad"
      ],
      [
        "u",
        "c"
      ],
      [
        "in",
        "ed"
      ],
      [
        "in",
        "ner"
      ],
      [
        "re",
        "mor"
      ],
      [
        "to",
        "morrow"
      ],
      [
        "st",
        "ar"
      ],
      [
        "st",
        "ra"
      ],
      [
        "is",
        "m"
      ],
      [
        "se",
        "tt"
      ],
      [
        "am",
        "used"
      ],
      [
        "un",
        "ch"
      ],
      [
        "un",
        "pleasant"
      ],
      [
        "ca",
        "p"
      ],
      [
        "ne",
        "g"
      ],
      [
        "ne",
        "gle"
      ],
      [
        "if",
        "ic"
      ],
      [
        "per",
        "haps"
      ],
      [
        "ill",
        "s"
      ],
      [
        "ci",
        "p"
      ],
      [
        "wr",
        "it"
      ],
      [
        "gre",
        "ss"
      ],
      [
        "bl",
        "ack"
      ],
      [
        "bel",
        "ong"
      ],
      [
        "pr",
        "ac"
      ],
      [
        "fre",
        "sh"
      ],
      [
        "lot",
        "s"
      ],
      [
        "aw",
        "are"
      ],
      [
        "ga",
        "ve"
      ],
      [
        "eas",
        "e"
      ],
      [
        "comm",
        "unity"
      ],
      [
        "spend",
        "ing"
      ],
      [
        "quest",
        "ions"
      ],
      [
        "reg",
        "ard"
      ],
      [
        "conne",
        "ction"
      ],
      [
        "enter",
        "tain"
      ],
      [
        "tear",
        "s"
      ],
      [
        "recent",
        "ly"
      ],
      [
        "quick",
        "ly"
      ],
      [
        "remor",
        "se"
      ],
      [
        "c",
        "ard"
      ],
      [
        "l",
        "u"
      ],
      [
        "l",
        "ad"
      ],
      [
        "w",
        "it"
      ],
      [
        "an",
        "ti"
      ],
      [
        "ke",
        "y"
      ],
      [
        "im",
        "g"
      ],
      [
        "do",
        "or"
      ],
      [
        "ic",
        "es"
      ],
      [
        "de",
        "vo"
      ],
      [
        "de",
        "ath"
      ],
      [
        "wor",
        "se"
      ],
      [
        "they",
        "re"
      ],
      [
        "ation",
        "al"
      ],
      [
        "dis",
        "illusion"
      ],
      [
        "di",
        "e"
      ],
      [
        "med",
        "i"
      ],
      [
        "person",
        "ally"
      ],
      [
        "part",
        "y"
      ],
      [
        "ans",
        "wer"
      ],
      [
        "keep",
        "ing"
      ],
      [
        "wa",
        "it"
      ],
      [
        "pres",
        "sure"
      ],
      [
        "wonder",
        "ing"
      ],
      [
        "gener",
        "al"
      ],
      [
        "cra",
        "zy"
      ],
      [
        "dre",
        "ss"
      ],
      [
        "heal",
        "th"
      ],
      [
        "expe",
        "cted"
      ],
      [
        "att",
        "empt"
      ],
      [
        "doub",
        "tful"
      ],
      [
        "colle",
        "ge"
      ],
      [
        "rece",
        "i"
      ],
      [
        "daz",
        "ed"
      ],
      [
        "disillusion",
        "ed"
      ],
      [
        "a",
        "vo"
      ],
      [
        "f",
        "li"
      ],
      [
        "h",
        "it"
      ],
      [
        "i",
        "ed"
      ],
      [
        "r",
        "ace"
      ],
      [
        "th",
        "or"
      ],
      [
        "ke",
        "en"
      ],
      [
        "se",
        "ver"
      ],
      [
        "ac",
        "king"
      ],
      [
        "ne",
        "t"
      ],
      [
        "de",
        "vel"
      ],
      [
        "ter",
        "n"
      ],
      [
        "them",
        "selves"
      ],
      [
        "pa",
        "ir"
      ],
      [
        "man",
        "aged"
      ],
      [
        "miss",
        "ing"
      ],
      [
        "emotion",
        "ally"
      ],
      [
        "sad",
        "ness"
      ],
      [
        "bu",
        "ild"
      ],
      [
        "vo",
        "ice"
      ],
      [
        "reason",
        "s"
      ],
      [
        "sleep",
        "ing"
      ],
      [
        "cas",
        "e"
      ],
      [
        "cry",
        "ing"
      ],
      [
        "listen",
        "ing"
      ],
      [
        "decis",
        "ion"
      ],
      [
        "mess",
        "y"
      ],
      [
        "photo",
        "s"
      ],
      [
        "fair",
        "ly"
      ],
      [
        "descri",
        "be"
      ],
      [
        "susp",
        "icious"
      ],
      [
        "delight",
        "ed"
      ],
      [
        "wea",
        "ther"
      ],
      [
        "c",
        "up"
      ],
      [
        "c",
        "ele"
      ],
      [
        "f",
        "lo"
      ],
      [
        "m",
        "ile"
      ],
      [
        "ing",
        "ly"
      ],
      [
        "re",
        "co"
      ],
      [
        "to",
        "ry"
      ],
      [
        "on",
        "to"
      ],
      [
        "st",
        "em"
      ],
      [
        "as",
        "king"
      ],
      [
        "co",
        "re"
      ],
      [
        "ne",
        "cess"
      ],
      [
        "ex",
        "tra"
      ],
      [
        "any",
        "way"
      ],
      [
        "itt",
        "en"
      ],
      [
        "il",
        "ities"
      ],
      [
        "dis",
        "cu"
      ],
      [
        "every",
        "day"
      ],
      [
        "di",
        "stressed"
      ],
      [
        "happ",
        "iness"
      ],
      [
        "gr",
        "am"
      ],
      [
        "ear",
        "ly"
      ],
      [
        "cho",
        "ice"
      ],
      [
        "app",
        "ro"
      ],
      [
        "cre",
        "ate"
      ],
      [
        "dec",
        "ide"
      ],
      [
        "tri",
        "p"
      ],
      [
        "comple",
        "te"
      ],
      [
        "action",
        "s"
      ],
      [
        "strug",
        "gle"
      ],
      [
        "phys",
        "ically"
      ],
      [
        "chall",
        "en"
      ],
      [
        "fil",
        "m"
      ],
      [
        "host",
        "ile"
      ],
      [
        "laz",
        "y"
      ],
      [
        "remorse",
        "ful"
      ],
      [
        "cele",
        "br"
      ],
      [
        "b",
        "s"
      ],
      [
        "b",
        "um"
      ],
      [
        "d",
        "d"
      ],
      [
        "h",
        "ell"
      ],
      [
        "i",
        "er"
      ],
      [
        "k",
        "ill"
      ],
      [
        "l",
        "ay"
      ],
      [
        "m",
        "il"
      ],
      [
        "w",
        "anna"
      ],
      [
        "er",
        "c"
      ],
      [
        "as",
        "e"
      ],
      [
        "as",
        "sa"
      ],
      [
        "ch",
        "est"
      ],
      [
        "for",
        "get"
      ],
      [
        "ro",
        "ll"
      ],
      [
        "sh",
        "aring"
      ],
      [
        "com",
        "put"
      ],
      [
        "ag",
        "re"
      ],
      [
        "pl",
        "ac"
      ],
      [
        "read",
        "ers"
      ],
      [
        "say",
        "s"
      ],
      [
        "most",
        "ly"
      ],
      [
        "help",
        "ing"
      ],
      [
        "look",
        "ed"
      ],
      [
        "pass",
        "ed"
      ],
      [
        "blog",
        "ging"
      ],
      [
        "pleas",
        "e"
      ],
      [
        "play",
        "ful"
      ],
      [
        "cons",
        "cious"
      ],
      [
        "dif",
        "fic"
      ],
      [
        "sub",
        "ject"
      ],
      [
        "compl",
        "ain"
      ],
      [
        "arti",
        "st"
      ],
      [
        "resp",
        "ons"
      ],
      [
        "sim",
        "ple"
      ],
      [
        "issu",
        "e"
      ],
      [
        "issu",
        "es"
      ],
      [
        "spo",
        "t"
      ],
      [
        "iet",
        "y"
      ],
      [
        "sist",
        "er"
      ],
      [
        "fav",
        "or"
      ],
      [
        "pub",
        "lic"
      ],
      [
        "glam",
        "orous"
      ],
      [
        "streng",
        "th"
      ],
      [
        "devel",
        "op"
      ],
      [
        "d",
        "aught"
      ],
      [
        "i",
        "p"
      ],
      [
        "n",
        "umber"
      ],
      [
        "p",
        "ing"
      ],
      [
        "p",
        "or"
      ],
      [
        "s",
        "mo"
      ],
      [
        "w",
        "ing"
      ],
      [
        "w",
        "ise"
      ],
      [
        "y",
        "e"
      ],
      [
        "to",
        "m"
      ],
      [
        "ed",
        "uc"
      ],
      [
        "al",
        "ity"
      ],
      [
        "be",
        "y"
      ],
      [
        "ac",
        "ious"
      ],
      [
        "we",
        "ak"
      ],
      [
        "de",
        "ad"
      ],
      [
        "ter",
        "s"
      ],
      [
        "ex",
        "cept"
      ],
      [
        "il",
        "ar"
      ],
      [
        "pro",
        "cess"
      ],
      [
        "fo",
        "ot"
      ],
      [
        "pres",
        "ence"
      ],
      [
        "post",
        "ing"
      ],
      [
        "hate",
        "ful"
      ],
      [
        "cra",
        "p"
      ],
      [
        "tur",
        "ned"
      ],
      [
        "enjoy",
        "ed"
      ],
      [
        "press",
        "ion"
      ],
      [
        "song",
        "s"
      ],
      [
        "allow",
        "ed"
      ],
      [
        "ju",
        "d"
      ],
      [
        "fill",
        "ed"
      ],
      [
        "character",
        "s"
      ],
      [
        "idio",
        "tic"
      ],
      [
        "negle",
        "ct"
      ],
      [
        "a",
        "we"
      ],
      [
        "a",
        "head"
      ],
      [
        "d",
        "an"
      ],
      [
        "n",
        "at"
      ],
      [
        "r",
        "is"
      ],
      [
        "s",
        "n"
      ],
      [
        "s",
        "ign"
      ],
      [
        "in",
        "y"
      ],
      [
        "in",
        "decis"
      ],
      [
        "the",
        "s"
      ],
      [
        "it",
        "ch"
      ],
      [
        "le",
        "ct"
      ],
      [
        "as",
        "ses"
      ],
      [
        "ly",
        "ing"
      ],
      [
        "ay",
        "ed"
      ],
      [
        "wi",
        "fe"
      ],
      [
        "ac",
        "ent"
      ],
      [
        "ant",
        "s"
      ],
      [
        "ne",
        "y"
      ],
      [
        "ag",
        "es"
      ],
      [
        "ast",
        "e"
      ],
      [
        "tion",
        "s"
      ],
      [
        "even",
        "ing"
      ],
      [
        "ep",
        "y"
      ],
      [
        "happ",
        "ens"
      ],
      [
        "tr",
        "ans"
      ],
      [
        "fr",
        "id"
      ],
      [
        "find",
        "ing"
      ],
      [
        "fam",
        "ili"
      ],
      [
        "cle",
        "s"
      ],
      [
        "worth",
        "y"
      ],
      [
        "anx",
        "iety"
      ],
      [
        "comp",
        "any"
      ],
      [
        "compl",
        "acent"
      ],
      [
        "boy",
        "friend"
      ],
      [
        "bus",
        "y"
      ],
      [
        "phys",
        "ical"
      ],
      [
        "resul",
        "ts"
      ],
      [
        "hu",
        "ge"
      ],
      [
        "gon",
        "na"
      ],
      [
        "stra",
        "ight"
      ],
      [
        "neg",
        "ative"
      ],
      [
        "sever",
        "al"
      ],
      [
        "comput",
        "er"
      ],
      [
        "indecis",
        "ive"
      ],
      [
        "b",
        "oun"
      ],
      [
        "c",
        "atch"
      ],
      [
        "f",
        "ive"
      ],
      [
        "n",
        "s"
      ],
      [
        "p",
        "at"
      ],
      [
        "p",
        "rom"
      ],
      [
        "s",
        "of"
      ],
      [
        "t",
        "itle"
      ],
      [
        "u",
        "ro"
      ],
      [
        "in",
        "hibit"
      ],
      [
        "re",
        "turn"
      ],
      [
        "on",
        "ment"
      ],
      [
        "st",
        "ing"
      ],
      [
        "it",
        "em"
      ],
      [
        "le",
        "tting"
      ],
      [
        "be",
        "a"
      ],
      [
        "ti",
        "es"
      ],
      [
        "am",
        "ed"
      ],
      [
        "lo",
        "l"
      ],
      [
        "lo",
        "sing"
      ],
      [
        "id",
        "ence"
      ],
      [
        "some",
        "where"
      ],
      [
        "ex",
        "erc"
      ],
      [
        "po",
        "lit"
      ],
      [
        "od",
        "d"
      ],
      [
        "what",
        "s"
      ],
      [
        "pro",
        "fe"
      ],
      [
        "pro",
        "gress"
      ],
      [
        "af",
        "fe"
      ],
      [
        "ig",
        "ned"
      ],
      [
        "should",
        "nt"
      ],
      [
        "stre",
        "et"
      ],
      [
        "des",
        "per"
      ],
      [
        "sm",
        "ell"
      ],
      [
        "bro",
        "ther"
      ],
      [
        "bre",
        "ath"
      ],
      [
        "certain",
        "ly"
      ],
      [
        "col",
        "or"
      ],
      [
        "fl",
        "u"
      ],
      [
        "ey",
        "e"
      ],
      [
        "guil",
        "t"
      ],
      [
        "enti",
        "re"
      ],
      [
        "grou",
        "chy"
      ],
      [
        "meet",
        "ing"
      ],
      [
        "inv",
        "ol"
      ],
      [
        "memor",
        "ies"
      ],
      [
        "train",
        "ing"
      ],
      [
        "gif",
        "t"
      ],
      [
        "seas",
        "on"
      ],
      [
        "fur",
        "ther"
      ],
      [
        "avo",
        "id"
      ],
      [
        "inhibit",
        "ed"
      ],
      [
        "a",
        "part"
      ],
      [
        "c",
        "at"
      ],
      [
        "f",
        "an"
      ],
      [
        "f",
        "at"
      ],
      [
        "f",
        "ra"
      ],
      [
        "g",
        "ri"
      ],
      [
        "g",
        "ant"
      ],
      [
        "m",
        "ist"
      ],
      [
        "o",
        "ve"
      ],
      [
        "s",
        "al"
      ],
      [
        "t",
        "ar"
      ],
      [
        "w",
        "ro"
      ],
      [
        "th",
        "ro"
      ],
      [
        "in",
        "es"
      ],
      [
        "in",
        "cre"
      ],
      [
        "re",
        "pe"
      ],
      [
        "st",
        "ri"
      ],
      [
        "or",
        "gan"
      ],
      [
        "ar",
        "ri"
      ],
      [
        "im",
        "pro"
      ],
      [
        "im",
        "medi"
      ],
      [
        "lo",
        "ad"
      ],
      [
        "ro",
        "ad"
      ],
      [
        "was",
        "h"
      ],
      [
        "ul",
        "ted"
      ],
      [
        "we",
        "epy"
      ],
      [
        "de",
        "st"
      ],
      [
        "ra",
        "ught"
      ],
      [
        "po",
        "se"
      ],
      [
        "act",
        "ing"
      ],
      [
        "could",
        "n"
      ],
      [
        "gr",
        "acious"
      ],
      [
        "wr",
        "itten"
      ],
      [
        "sto",
        "od"
      ],
      [
        "fa",
        "ult"
      ],
      [
        "tr",
        "an"
      ],
      [
        "care",
        "er"
      ],
      [
        "terri",
        "bly"
      ],
      [
        "tur",
        "ning"
      ],
      [
        "play",
        "ing"
      ],
      [
        "sy",
        "stem"
      ],
      [
        "dist",
        "raught"
      ],
      [
        "ob",
        "vious"
      ],
      [
        "dr",
        "am"
      ],
      [
        "enti",
        "rely"
      ],
      [
        "proble",
        "m"
      ],
      [
        "doub",
        "t"
      ],
      [
        "convers",
        "ation"
      ],
      [
        "appe",
        "ar"
      ],
      [
        "bey",
        "ond"
      ],
      [
        "nat",
        "ur"
      ],
      [
        "bea",
        "uty"
      ],
      [
        "wro",
        "te"
      ],
      [
        "b",
        "ers"
      ],
      [
        "c",
        "li"
      ],
      [
        "c",
        "ir"
      ],
      [
        "d",
        "ance"
      ],
      [
        "h",
        "ang"
      ],
      [
        "n",
        "al"
      ],
      [
        "p",
        "en"
      ],
      [
        "s",
        "and"
      ],
      [
        "in",
        "clu"
      ],
      [
        "el",
        "d"
      ],
      [
        "be",
        "ha"
      ],
      [
        "be",
        "tr"
      ],
      [
        "li",
        "vely"
      ],
      [
        "no",
        "on"
      ],
      [
        "no",
        "tic"
      ],
      [
        "ha",
        "ha"
      ],
      [
        "are",
        "a"
      ],
      [
        "per",
        "for"
      ],
      [
        "il",
        "ing"
      ],
      [
        "bit",
        "ch"
      ],
      [
        "qu",
        "iet"
      ],
      [
        "pro",
        "per"
      ],
      [
        "ear",
        "li"
      ],
      [
        "med",
        "ia"
      ],
      [
        "work",
        "s"
      ],
      [
        "sto",
        "pped"
      ],
      [
        "te",
        "st"
      ],
      [
        "your",
        "self"
      ],
      [
        "cho",
        "ose"
      ],
      [
        "spe",
        "c"
      ],
      [
        "fi",
        "x"
      ],
      [
        "tal",
        "ked"
      ],
      [
        "au",
        "di"
      ],
      [
        "br",
        "ought"
      ],
      [
        "ps",
        "y"
      ],
      [
        "ser",
        "ies"
      ],
      [
        "clo",
        "thes"
      ],
      [
        "eas",
        "ily"
      ],
      [
        "happen",
        "ing"
      ],
      [
        "win",
        "dow"
      ],
      [
        "dri",
        "ve"
      ],
      [
        "blo",
        "od"
      ],
      [
        "soci",
        "et"
      ],
      [
        "chang",
        "es"
      ],
      [
        "slow",
        "ly"
      ],
      [
        "mid",
        "dle"
      ],
      [
        "deser",
        "ve"
      ],
      [
        "pregn",
        "ant"
      ],
      [
        "reco",
        "gn"
      ],
      [
        "assa",
        "ulted"
      ],
      [
        "diffic",
        "ult"
      ],
      [
        "daught",
        "er"
      ],
      [
        "c",
        "ult"
      ],
      [
        "d",
        "inner"
      ],
      [
        "l",
        "ink"
      ],
      [
        "l",
        "ord"
      ],
      [
        "t",
        "able"
      ],
      [
        "w",
        "inter"
      ],
      [
        "an",
        "gu"
      ],
      [
        "fe",
        "et"
      ],
      [
        "ed",
        "om"
      ],
      [
        "en",
        "vir"
      ],
      [
        "it",
        "self"
      ],
      [
        "me",
        "s"
      ],
      [
        "no",
        "tice"
      ],
      [
        "wh",
        "ite"
      ],
      [
        "se",
        "cre"
      ],
      [
        "go",
        "ver"
      ],
      [
        "con",
        "fe"
      ],
      [
        "ra",
        "ge"
      ],
      [
        "com",
        "ment"
      ],
      [
        "who",
        "m"
      ],
      [
        "qu",
        "il"
      ],
      [
        "bo",
        "o"
      ],
      [
        "bo",
        "ys"
      ],
      [
        "him",
        "self"
      ],
      [
        "ep",
        "is"
      ],
      [
        "ear",
        "th"
      ],
      [
        "ward",
        "s"
      ],
      [
        "through",
        "out"
      ],
      [
        "fre",
        "edom"
      ],
      [
        "stu",
        "ck"
      ],
      [
        "op",
        "in"
      ],
      [
        "understand",
        "ing"
      ],
      [
        "nor",
        "m"
      ],
      [
        "enjoy",
        "ing"
      ],
      [
        "hop",
        "ing"
      ],
      [
        "situ",
        "ations"
      ],
      [
        "appreci",
        "ate"
      ],
      [
        "vis",
        "it"
      ],
      [
        "relation",
        "ships"
      ],
      [
        "sex",
        "ual"
      ],
      [
        "ele",
        "gant"
      ],
      [
        "mi",
        "x"
      ],
      [
        "minut",
        "e"
      ],
      [
        "picture",
        "s"
      ],
      [
        "gra",
        "ph"
      ],
      [
        "dep",
        "end"
      ],
      [
        "scre",
        "am"
      ],
      [
        "da",
        "ily"
      ],
      [
        "kis",
        "s"
      ],
      [
        "apo",
        "log"
      ],
      [
        "entertain",
        "ed"
      ],
      [
        "frid",
        "ay"
      ],
      [
        "tar",
        "get"
      ],
      [
        "envir",
        "onment"
      ],
      [
        "c",
        "um"
      ],
      [
        "h",
        "ide"
      ],
      [
        "i",
        "ans"
      ],
      [
        "n",
        "ic"
      ],
      [
        "t",
        "v"
      ],
      [
        "u",
        "red"
      ],
      [
        "th",
        "us"
      ],
      [
        "at",
        "or"
      ],
      [
        "en",
        "e"
      ],
      [
        "en",
        "cou"
      ],
      [
        "li",
        "ved"
      ],
      [
        "he",
        "a"
      ],
      [
        "ca",
        "stic"
      ],
      [
        "up",
        "tight"
      ],
      [
        "com",
        "passionate"
      ],
      [
        "bo",
        "ther"
      ],
      [
        "ment",
        "ally"
      ],
      [
        "di",
        "ed"
      ],
      [
        "ide",
        "as"
      ],
      [
        "ck",
        "s"
      ],
      [
        "after",
        "noon"
      ],
      [
        "pa",
        "thy"
      ],
      [
        "spe",
        "ct"
      ],
      [
        "sha",
        "ke"
      ],
      [
        "heart",
        "less"
      ],
      [
        "fin",
        "al"
      ],
      [
        "au",
        "thor"
      ],
      [
        "off",
        "ice"
      ],
      [
        "ten",
        "ti"
      ],
      [
        "let",
        "s"
      ],
      [
        "conf",
        "idence"
      ],
      [
        "post",
        "s"
      ],
      [
        "sen",
        "s"
      ],
      [
        "sho",
        "es"
      ],
      [
        "lea",
        "ves"
      ],
      [
        "old",
        "er"
      ],
      [
        "ib",
        "ility"
      ],
      [
        "dream",
        "s"
      ],
      [
        "consider",
        "ate"
      ],
      [
        "soci",
        "able"
      ],
      [
        "gen",
        "u"
      ],
      [
        "sil",
        "ly"
      ],
      [
        "current",
        "ly"
      ],
      [
        "holi",
        "day"
      ],
      [
        "sar",
        "castic"
      ],
      [
        "struggl",
        "ing"
      ],
      [
        "figu",
        "re"
      ],
      [
        "devo",
        "ted"
      ],
      [
        "discu",
        "ss"
      ],
      [
        "beha",
        "vi"
      ],
      [
        "earli",
        "er"
      ],
      [
        "cult",
        "ure"
      ],
      [
        "a",
        "im"
      ],
      [
        "a",
        "il"
      ],
      [
        "c",
        "ity"
      ],
      [
        "c",
        "ross"
      ],
      [
        "d",
        "y"
      ],
      [
        "e",
        "e"
      ],
      [
        "f",
        "ans"
      ],
      [
        "j",
        "ol"
      ],
      [
        "s",
        "pl"
      ],
      [
        "v",
        "ity"
      ],
      [
        "w",
        "ind"
      ],
      [
        "x",
        "ious"
      ],
      [
        "y",
        "o"
      ],
      [
        "in",
        "ing"
      ],
      [
        "el",
        "s"
      ],
      [
        "an",
        "n"
      ],
      [
        "re",
        "c"
      ],
      [
        "to",
        "wn"
      ],
      [
        "en",
        "gl"
      ],
      [
        "st",
        "un"
      ],
      [
        "ar",
        "m"
      ],
      [
        "ve",
        "red"
      ],
      [
        "no",
        "xious"
      ],
      [
        "ha",
        "ven"
      ],
      [
        "de",
        "pression"
      ],
      [
        "ous",
        "ly"
      ],
      [
        "ind",
        "i"
      ],
      [
        "pro",
        "gram"
      ],
      [
        "gr",
        "ad"
      ],
      [
        "cont",
        "ri"
      ],
      [
        "bl",
        "ah"
      ],
      [
        "bl",
        "amed"
      ],
      [
        "sha",
        "med"
      ],
      [
        "des",
        "ign"
      ],
      [
        "real",
        "ity"
      ],
      [
        "peri",
        "od"
      ],
      [
        "give",
        "s"
      ],
      [
        "bad",
        "ly"
      ],
      [
        "char",
        "ming"
      ],
      [
        "ob",
        "noxious"
      ],
      [
        "stay",
        "ing"
      ],
      [
        "appreci",
        "ated"
      ],
      [
        "interest",
        "ing"
      ],
      [
        "sim",
        "ilar"
      ],
      [
        "pur",
        "pose"
      ],
      [
        "dire",
        "ction"
      ],
      [
        "motiv",
        "ated"
      ],
      [
        "serv",
        "ice"
      ],
      [
        "lar",
        "ge"
      ],
      [
        "birth",
        "day"
      ],
      [
        "challen",
        "ge"
      ],
      [
        "favor",
        "ite"
      ],
      [
        "awe",
        "some"
      ],
      [
        "sof",
        "t"
      ],
      [
        "exerc",
        "ise"
      ],
      [
        "invol",
        "ved"
      ],
      [
        "mist",
        "ake"
      ],
      [
        "incre",
        "as"
      ],
      [
        "immedi",
        "ately"
      ],
      [
        "betr",
        "ayed"
      ],
      [
        "societ",
        "y"
      ],
      [
        "b",
        "b"
      ],
      [
        "h",
        "at"
      ],
      [
        "l",
        "ab"
      ],
      [
        "n",
        "one"
      ],
      [
        "p",
        "ul"
      ],
      [
        "r",
        "ay"
      ],
      [
        "v",
        "ac"
      ],
      [
        "w",
        "s"
      ],
      [
        "in",
        "a"
      ],
      [
        "in",
        "ve"
      ],
      [
        "in",
        "ely"
      ],
      [
        "an",
        "im"
      ],
      [
        "re",
        "view"
      ],
      [
        "re",
        "main"
      ],
      [
        "er",
        "y"
      ],
      [
        "ed",
        "ge"
      ],
      [
        "st",
        "ick"
      ],
      [
        "so",
        "re"
      ],
      [
        "li",
        "p"
      ],
      [
        "li",
        "ft"
      ],
      [
        "li",
        "ps"
      ],
      [
        "se",
        "ss"
      ],
      [
        "ab",
        "ove"
      ],
      [
        "mo",
        "vi"
      ],
      [
        "ac",
        "tiv"
      ],
      [
        "do",
        "ctor"
      ],
      [
        "sel",
        "y"
      ],
      [
        "ma",
        "il"
      ],
      [
        "pre",
        "tend"
      ],
      [
        "ex",
        "ist"
      ],
      [
        "po",
        "tenti"
      ],
      [
        "ment",
        "al"
      ],
      [
        "fo",
        "c"
      ],
      [
        "gr",
        "ace"
      ],
      [
        "med",
        "ic"
      ],
      [
        "work",
        "out"
      ],
      [
        "wo",
        "od"
      ],
      [
        "te",
        "red"
      ],
      [
        "pa",
        "red"
      ],
      [
        "bl",
        "ue"
      ],
      [
        "sit",
        "ive"
      ],
      [
        "aw",
        "ake"
      ],
      [
        "part",
        "ner"
      ],
      [
        "fore",
        "ver"
      ],
      [
        "tre",
        "e"
      ],
      [
        "tre",
        "ated"
      ],
      [
        "post",
        "ed"
      ],
      [
        "sen",
        "sitive"
      ],
      [
        "call",
        "ing"
      ],
      [
        "hur",
        "ts"
      ],
      [
        "watch",
        "ed"
      ],
      [
        "tra",
        "vel"
      ],
      [
        "face",
        "book"
      ],
      [
        "mean",
        "ing"
      ],
      [
        "hear",
        "ing"
      ],
      [
        "comp",
        "an"
      ],
      [
        "diffe",
        "rence"
      ],
      [
        "sun",
        "day"
      ],
      [
        "fall",
        "ing"
      ],
      [
        "bus",
        "iness"
      ],
      [
        "follow",
        "ing"
      ],
      [
        "si",
        "x"
      ],
      [
        "form",
        "ation"
      ],
      [
        "project",
        "s"
      ],
      [
        "vide",
        "o"
      ],
      [
        "sug",
        "gest"
      ],
      [
        "acc",
        "ident"
      ],
      [
        "necess",
        "ary"
      ],
      [
        "neglect",
        "ful"
      ],
      [
        "profe",
        "ssion"
      ],
      [
        "secre",
        "t"
      ],
      [
        "a",
        "a"
      ],
      [
        "b",
        "ought"
      ],
      [
        "j",
        "or"
      ],
      [
        "j",
        "ump"
      ],
      [
        "m",
        "um"
      ],
      [
        "m",
        "ass"
      ],
      [
        "n",
        "ature"
      ],
      [
        "o",
        "de"
      ],
      [
        "p",
        "an"
      ],
      [
        "u",
        "tion"
      ],
      [
        "in",
        "st"
      ],
      [
        "to",
        "tal"
      ],
      [
        "and",
        "om"
      ],
      [
        "li",
        "k"
      ],
      [
        "ke",
        "s"
      ],
      [
        "ch",
        "es"
      ],
      [
        "out",
        "raged"
      ],
      [
        "ac",
        "tive"
      ],
      [
        "un",
        "less"
      ],
      [
        "ic",
        "ulous"
      ],
      [
        "go",
        "al"
      ],
      [
        "pe",
        "t"
      ],
      [
        "de",
        "ta"
      ],
      [
        "ce",
        "ption"
      ],
      [
        "ma",
        "jor"
      ],
      [
        "ok",
        "ay"
      ],
      [
        "sp",
        "ort"
      ],
      [
        "bo",
        "x"
      ],
      [
        "em",
        "p"
      ],
      [
        "em",
        "br"
      ],
      [
        "over",
        "all"
      ],
      [
        "cho",
        "col"
      ],
      [
        "cho",
        "ices"
      ],
      [
        "ener",
        "g"
      ],
      [
        "cre",
        "ated"
      ],
      [
        "ie",
        "ve"
      ],
      [
        "mem",
        "bers"
      ],
      [
        "take",
        "s"
      ],
      [
        "sur",
        "round"
      ],
      [
        "girl",
        "friend"
      ],
      [
        "fl",
        "aw"
      ],
      [
        "che",
        "er"
      ],
      [
        "posit",
        "ion"
      ],
      [
        "inter",
        "net"
      ],
      [
        "comm",
        "un"
      ],
      [
        "oo",
        "oo"
      ],
      [
        "bas",
        "ed"
      ],
      [
        "leg",
        "s"
      ],
      [
        "uni",
        "verse"
      ],
      [
        "chang",
        "ed"
      ],
      [
        "resul",
        "t"
      ],
      [
        "experien",
        "ces"
      ],
      [
        "exp",
        "lo"
      ],
      [
        "near",
        "ly"
      ],
      [
        "jour",
        "ney"
      ],
      [
        "bi",
        "ke"
      ],
      [
        "accompl",
        "ish"
      ],
      [
        "brea",
        "the"
      ],
      [
        "recei",
        "ved"
      ],
      [
        "agre",
        "e"
      ],
      [
        "boun",
        "cy"
      ],
      [
        "audi",
        "ence"
      ],
      [
        "genu",
        "inely"
      ],
      [
        "stun",
        "ned"
      ],
      [
        "indi",
        "vid"
      ],
      [
        "movi",
        "es"
      ],
      [
        "b",
        "right"
      ],
      [
        "c",
        "ro"
      ],
      [
        "d",
        "ed"
      ],
      [
        "g",
        "ut"
      ],
      [
        "g",
        "ig"
      ],
      [
        "j",
        "es"
      ],
      [
        "l",
        "er"
      ],
      [
        "l",
        "aw"
      ],
      [
        "m",
        "ou"
      ],
      [
        "p",
        "al"
      ],
      [
        "r",
        "r"
      ],
      [
        "r",
        "an"
      ],
      [
        "r",
        "out"
      ],
      [
        "s",
        "id"
      ],
      [
        "t",
        "aste"
      ],
      [
        "v",
        "ar"
      ],
      [
        "w",
        "ast"
      ],
      [
        "in",
        "ation"
      ],
      [
        "in",
        "formation"
      ],
      [
        "an",
        "cy"
      ],
      [
        "re",
        "pressed"
      ],
      [
        "re",
        "action"
      ],
      [
        "the",
        "rap"
      ],
      [
        "at",
        "tr"
      ],
      [
        "at",
        "tend"
      ],
      [
        "al",
        "ive"
      ],
      [
        "me",
        "ant"
      ],
      [
        "be",
        "coming"
      ],
      [
        "be",
        "came"
      ],
      [
        "li",
        "es"
      ],
      [
        "se",
        "par"
      ],
      [
        "am",
        "ong"
      ],
      [
        "he",
        "av"
      ],
      [
        "un",
        "d"
      ],
      [
        "ca",
        "ught"
      ],
      [
        "ne",
        "uro"
      ],
      [
        "de",
        "red"
      ],
      [
        "pre",
        "fer"
      ],
      [
        "if",
        "ied"
      ],
      [
        "po",
        "or"
      ],
      [
        "com",
        "b"
      ],
      [
        "know",
        "s"
      ],
      [
        "itt",
        "ed"
      ],
      [
        "ev",
        "ents"
      ],
      [
        "il",
        "ed"
      ],
      [
        "dis",
        "co"
      ],
      [
        "gu",
        "e"
      ],
      [
        "hel",
        "d"
      ],
      [
        "str",
        "ang"
      ],
      [
        "te",
        "ch"
      ],
      [
        "fi",
        "eld"
      ],
      [
        "help",
        "ed"
      ],
      [
        "off",
        "ic"
      ],
      [
        "care",
        "s"
      ],
      [
        "stand",
        "ing"
      ],
      [
        "vers",
        "ion"
      ],
      [
        "ash",
        "ion"
      ],
      [
        "insp",
        "ir"
      ],
      [
        "stud",
        "ying"
      ],
      [
        "fol",
        "ks"
      ],
      [
        "vis",
        "ion"
      ],
      [
        "reg",
        "ular"
      ],
      [
        "ord",
        "in"
      ],
      [
        "resp",
        "on"
      ],
      [
        "truth",
        "ful"
      ],
      [
        "ben",
        "ef"
      ],
      [
        "experien",
        "ced"
      ],
      [
        "grow",
        "ing"
      ],
      [
        "rid",
        "iculous"
      ],
      [
        "teach",
        "er"
      ],
      [
        "equ",
        "ally"
      ],
      [
        "fing",
        "ers"
      ],
      [
        "effect",
        "s"
      ],
      [
        "prac",
        "tice"
      ],
      [
        "mile",
        "s"
      ],
      [
        "ye",
        "ah"
      ],
      [
        "psy",
        "cho"
      ],
      [
        "epis",
        "ode"
      ],
      [
        "jol",
        "ly"
      ],
      [
        "b",
        "rush"
      ],
      [
        "c",
        "offe"
      ],
      [
        "d",
        "un"
      ],
      [
        "f",
        "ashion"
      ],
      [
        "g",
        "in"
      ],
      [
        "n",
        "ur"
      ],
      [
        "p",
        "ound"
      ],
      [
        "r",
        "or"
      ],
      [
        "r",
        "ac"
      ],
      [
        "s",
        "car"
      ],
      [
        "s",
        "ize"
      ],
      [
        "t",
        "ad"
      ],
      [
        "t",
        "wit"
      ],
      [
        "w",
        "ers"
      ],
      [
        "at",
        "s"
      ],
      [
        "on",
        "line"
      ],
      [
        "en",
        "ces"
      ],
      [
        "and",
        "s"
      ],
      [
        "or",
        "y"
      ],
      [
        "le",
        "ep"
      ],
      [
        "as",
        "leep"
      ],
      [
        "be",
        "side"
      ],
      [
        "ar",
        "tic"
      ],
      [
        "se",
        "qu"
      ],
      [
        "ab",
        "and"
      ],
      [
        "es",
        "day"
      ],
      [
        "id",
        "ing"
      ],
      [
        "mo",
        "ved"
      ],
      [
        "ro",
        "ck"
      ],
      [
        "co",
        "s"
      ],
      [
        "he",
        "at"
      ],
      [
        "un",
        "able"
      ],
      [
        "we",
        "ve"
      ],
      [
        "not",
        "e"
      ],
      [
        "ca",
        "pe"
      ],
      [
        "all",
        "ed"
      ],
      [
        "ce",
        "ed"
      ],
      [
        "sh",
        "ut"
      ],
      [
        "sh",
        "if"
      ],
      [
        "pre",
        "vious"
      ],
      [
        "ex",
        "per"
      ],
      [
        "per",
        "spe"
      ],
      [
        "sp",
        "ite"
      ],
      [
        "sp",
        "ring"
      ],
      [
        "pro",
        "vide"
      ],
      [
        "read",
        "er"
      ],
      [
        "gr",
        "at"
      ],
      [
        "ure",
        "s"
      ],
      [
        "rel",
        "ig"
      ],
      [
        "his",
        "tory"
      ],
      [
        "fin",
        "an"
      ],
      [
        "let",
        "ter"
      ],
      [
        "keep",
        "s"
      ],
      [
        "blog",
        "s"
      ],
      [
        "sat",
        "ur"
      ],
      [
        "swe",
        "at"
      ],
      [
        "bro",
        "wn"
      ],
      [
        "res",
        "igned"
      ],
      [
        "hard",
        "er"
      ],
      [
        "sho",
        "p"
      ],
      [
        "seem",
        "ed"
      ],
      [
        "mat",
        "er"
      ],
      [
        "sk",
        "ills"
      ],
      [
        "become",
        "s"
      ],
      [
        "produ",
        "cts"
      ],
      [
        "tou",
        "gh"
      ],
      [
        "decis",
        "ions"
      ],
      [
        "pie",
        "ces"
      ],
      [
        "interest",
        "ed"
      ],
      [
        "pur",
        "su"
      ],
      [
        "sound",
        "s"
      ],
      [
        "clu",
        "b"
      ],
      [
        "lit",
        "er"
      ],
      [
        "mention",
        "ed"
      ],
      [
        "hun",
        "g"
      ],
      [
        "sw",
        "im"
      ],
      [
        "jour",
        "nal"
      ],
      [
        "holi",
        "days"
      ],
      [
        "natur",
        "al"
      ],
      [
        "notic",
        "ed"
      ],
      [
        "norm",
        "ally"
      ],
      [
        "lik",
        "ely"
      ],
      [
        "chocol",
        "ate"
      ],
      [
        "individ",
        "ual"
      ],
      [
        "jes",
        "us"
      ],
      [
        "mou",
        "th"
      ],
      [
        "coffe",
        "e"
      ],
      [
        "perspe",
        "ctive"
      ],
      [
        "a",
        "red"
      ],
      [
        "b",
        "low"
      ],
      [
        "b",
        "ath"
      ],
      [
        "f",
        "fe"
      ],
      [
        "f",
        "le"
      ],
      [
        "l",
        "angu"
      ],
      [
        "m",
        "ount"
      ],
      [
        "p",
        "ack"
      ],
      [
        "r",
        "ide"
      ],
      [
        "s",
        "ite"
      ],
      [
        "u",
        "k"
      ],
      [
        "w",
        "l"
      ],
      [
        "w",
        "imp"
      ],
      [
        "y",
        "a"
      ],
      [
        "y",
        "ell"
      ],
      [
        "z",
        "z"
      ],
      [
        "in",
        "ce"
      ],
      [
        "in",
        "stant"
      ],
      [
        "at",
        "ic"
      ],
      [
        "to",
        "ol"
      ],
      [
        "on",
        "ed"
      ],
      [
        "al",
        "bum"
      ],
      [
        "ar",
        "s"
      ],
      [
        "ar",
        "ily"
      ],
      [
        "se",
        "ssion"
      ],
      [
        "ti",
        "ll"
      ],
      [
        "lo",
        "cal"
      ],
      [
        "mo",
        "tion"
      ],
      [
        "ac",
        "y"
      ],
      [
        "ho",
        "l"
      ],
      [
        "co",
        "ok"
      ],
      [
        "do",
        "g"
      ],
      [
        "do",
        "m"
      ],
      [
        "we",
        "red"
      ],
      [
        "ne",
        "ck"
      ],
      [
        "de",
        "m"
      ],
      [
        "sh",
        "ir"
      ],
      [
        "ur",
        "y"
      ],
      [
        "tt",
        "e"
      ],
      [
        "com",
        "mon"
      ],
      [
        "any",
        "where"
      ],
      [
        "ag",
        "u"
      ],
      [
        "ast",
        "er"
      ],
      [
        "will",
        "ing"
      ],
      [
        "bo",
        "t"
      ],
      [
        "other",
        "wise"
      ],
      [
        "sa",
        "ve"
      ],
      [
        "di",
        "et"
      ],
      [
        "gr",
        "ab"
      ],
      [
        "ach",
        "ieve"
      ],
      [
        "after",
        "wards"
      ],
      [
        "pa",
        "ge"
      ],
      [
        "pr",
        "ide"
      ],
      [
        "man",
        "age"
      ],
      [
        "ie",
        "f"
      ],
      [
        "real",
        "ise"
      ],
      [
        "pass",
        "ing"
      ],
      [
        "tre",
        "as"
      ],
      [
        "head",
        "ache"
      ],
      [
        "sho",
        "pping"
      ],
      [
        "cra",
        "ving"
      ],
      [
        "hand",
        "le"
      ],
      [
        "dist",
        "ance"
      ],
      [
        "sor",
        "row"
      ],
      [
        "ob",
        "li"
      ]
    ]
  }
}